node {
  name: "product_embeddings"
  op: "Placeholder"
  attr {
    key: "dtype"
    value {
      type: DT_FLOAT
    }
  }
  attr {
    key: "shape"
    value {
      shape {
        dim {
          size: 50
        }
        dim {
          size: 105
        }
      }
    }
  }
}
node {
  name: "W"
  op: "Const"
  attr {
    key: "dtype"
    value {
      type: DT_FLOAT
    }
  }
  attr {
    key: "value"
    value {
      tensor {
        dtype: DT_FLOAT
        tensor_shape {
          dim {
            size: 105
          }
          dim {
            size: 105
          }
        }
        tensor_content: "p!x?\362H\003<\035\202D?\232_\253=\340*J>\254\023Q?\317;8?d*g?]\277\371>\210v)?5v4>\213G*?zJ\r>\240ll?\336u\326>\253b\002=\201\303\034?~\205\006?]\024\006?\320\2605>\021\007n>\351w\277=1,[?\r\0135?\301\342F>\232C\004=f\3675?\336\272\324>\260\315@?Y\034E?\342\323\016>\023\220\n>V\000\355=U\351\265>\274Nm?\350\t\024?\243U2<\373\016>?\304\245]?(g@?T&q?\366{;?W^#?*\"G?\314\254\034>\204\366i?\"\014z?x<\311>\232\230&=\322\344o?\237\370\'?\001\257p?\\\224\016?\003\231c?/\264\341>\316\355\014>\'gU?\241\206\350>\336\025\264>\213\232\225>.\032,?$l\001?\373\241x?v|(?\351f\357>\255\310/?\263\376\003>\034\205=?\301P\302>\314AA?\260\223^>[1a?\273\231,?R\244\215>@\250\243=\024\026y>@\037\024>\260\226C?\212\347\n?\005&#<\212\324,?r\304\371>\205\237\305>\002\356%>6\273m?\033\362\014>v\365\320>\300\223l?\271\"\375>\026bm?\330\227;>\023\261I?qc\230>\235\341:?{P\210=\331\353\345=\260\322\360>L\035J?\336\317Q? W\274>Q\031+?\350`\276=e\316\270>\364;s?B\252\002?/W\000?\033\264\361>}n\263>Pa\262>\374\240\320>BQ=?\230\021\340>n\257\026>\032\341p?\247\322_?~@`?C*>?\320\366i>\367\372L?dBL?^\270\212>DhU?\265A5?\211b\010?B:5=_\211^?LD\347>f4]>\010\201\237=P@\312>\330m\372>\347\023\272=R-7?n*\221>\r\263\016?h_}?\271\365*>\207<\302>8\':?\025xY>-[|?&\360R>@\240\305=*E\222>\376\227H?\313\200h?\032&&?\253\217\244>j~2>S\215J?AAa>0\362U?[J7?Ty\013>\365\214V?u\353\001?\314\r\347>c\204\276>\315\201\016?\243\266\303>\314N\315=\026f$?e\206{><=\326>-\214K?\227-\272>T\214\004?\231\006]?\014\301\206>\257-\260>UK\005?P*\241=?H\\?\221\256\273>\"E`?\213F\266>\207,\346=\256\325\352>u\327\262>\346\345G?n\315\370>Bxc?\345\215c?\202\nQ?\370\031;?\215\224\222>\031?\326>\236b\026?\224\200\025?L\327\224>l?\201>y\017\376>\007R}?\002\216Y?y\275_?]\354\345>G\025\020?#\024\347>(\205\333>\366\001\r?\245vK>\216p\353=f\021H?U\212\\?y\203\262>A\242`>\340\235s?\331$L?\272\203\277=\310n\335>q{j? \260\330>\255\232\377=\031\tw?\360\244T?\306\351\231>\302\234A?\274\2524?\201T\216>\241\247\340=\313\260\030?x\340\n?\360\232\014?\3203<=\372\264k?\303\300E?\275l.>\357O\024?\306\345\204>\333QA?8%a=\\\026G?\344;L?\315\005&?\325\0109?\036\366\327<v\323]?\rl|?\300\013#?\234\253\307>W\000\252>\360\343#?\2534\265>\256\002\302>\347Mb?pV\315=\263z\366>\244/\014?K\317e?\033l\036?f\305\214>\037\327\001?\202\324.?\223\"q?\205\363]?\200\0279?:\001\014?\221<\267>O6P?=\336c?\254\037\206>A\345$?\203\364\320>Q6P?\\\3024?+8>?c)\215>\030B(?+i >^p\276>\017\3156=\261\261&>\301l\026>(\342\r?C\334\204<(\243\014?\333wO?r=\360>9\324\357>\025\300\020?O\247*?\357Nq?\203\326b>\307\231-?\361\201\033?\313\327C?k\023\277>jS\224>\221\322y?\370<n?\021\344{?\376\267=?\271\356m?\353\250q?\237\370c?\263\262\233>\0069]?\360\227\303>\022\310\226>\2123*?\302\256\211<\207D\344=\214\215\264>\324$\273>\331~\246>\031\022\t?\2608\035=;\261$?\304E\264>\224Y5?\274/\354>\365j\363>,\376\375>\272\335\344>\351\240\255>\315P\310>\303w\203>\"H\333>\302\0315?\205\212.>$\336\276<\2046>?\211\3709?\345\024\027?\026\222x?R9c?\316^\371>*\275\014?p\312\243>\324Ao?!^H?\304YA?\341W\227>u.B>T\326\214>\251!\346>T\274\263=\3636}?k\223C?\202Fj>1\241\202>\204|\265>\202R0?\025\212p>\270/V=\235\027\220>H\250\330>6\230\215>\331_T?\351\320N>{U1>+y\212=\347\333O?\272g\233>c\361,>\304\365p?\356\036\316>\213\010\"?w\202\221>\276}\375>\317\376V?8\006K?\353K\003?\215\246\357>\213\036\373>#^a?\217\326h>\227K\257>\313\2065?\0250\"?\313%b?\252TM?:e\r> \241\326=\216mp?\352\212\177?\"\234`>\034\010v?\261u\344>\315\002\n?`\2419?,\361j>\375ON?\307\213\371>\031(O?\226\177v?\321o5>T\t\267>k\017e=K\014f?)\211\020>\020\004;?`H\023>\270\273`?2\357\244>\357C\377>\343\021c?Y\301\013=\344\026,?\322r\302>\364\255\017?\n\200\003?\033s\014?\315d\003>\036\024\036>\245\365\336>  \227>[\333??pm\245>\"\3660>\010a7?K=\261>\351[\022?\223\277\007?\335\324C?>\301\310>\262\241\026?\002\310\023=\346k\232>k\016\271=\256\335c>sO\022?\n\201\262>\331\235q?\241\3555?@p\037>\377\261%?\356\263\243>\226R)>?\005\020?\3525e=v\330\177?U+\237=\361\326\362>\374}\211>u\375\323=\212d5?\310\031f?\357\207\200=1\333\005?\2033G?E9l>\215\345\373>1\225G?\223E\032?\241\333??\235e\342>\242\213;?\007\361p>\313\354[?I\340v?b\352<?t\320;?\240\321\265<\274\377<?\023\230R?\205EP?F\270\211>o5\241>\004\234^?f\362H>\204\253;?\230\010\210=\013\205\371>o\261y>u\371[?\375HJ?\r\307\302=\307Te?\365\216G?\"\3070?)\374\340>\262\243s?\225H!?\n\2654=-8A?\220\3610?\234\307\007?\306\266\223>\374Om?w&\353<\230\260+?2K\'?\201pg?|\300\370>\357=\037?\264]2?F\201\036?\301\242#>\323R\n?;H\256>\033\367~?T\202\013?K\236\300=o\201\370=\226\255%?\027\302\024?\337 c=D\226)>\217\n\002?\272\025x>\026\261\245>\032\265=?\025\311N?\2758Z?\356\267O?N\222\001>vv\017?h\3141?\317\304\372>\361\367]?\341\331R?_\0063?\275P\037?\354l0?T\017\271>N\315\262=)\r\205=\352\341\037?\254\032w?\252\355J?\031\206\330>\021}\332>\242\016\177?\364\263\005?\310\3518?\332Ya?\254d#?w\262R<\351b;?\034sx<#\363\177?\362\2378>\252\202N?\272\230\332>V\025|?89\340>\351\243_?\031\204\355>\373\252X?=CA?tU3?\205\306&>M@e?sQ`=\306\212\r?\3619$?\360\310\273>$}n>\304\244J?\347\360\001=\341T\236>\262I\006>\302Sr?\210\027X?\266\214\323=+\023\017?\247\252\372>\230\363??\271\277b>3OO?[\3171?d\021\362=\200G@>u\2278?\310\321S<>&\351>%$\212>\315\2604=\347L@?\333\023A?\245\203?>\243#X?\247\032!=Bu\201>\304\333!?\211\245 ?a\262o?\303%0?\373\332>??\246\200>rK\244=\237[E?p\315\310>5fT? \237t?\335\327\355>\301|)?\323-\025>W\314\227>\330\266a?\nI\031?7(t>\336]}<D\252(?\357\305r?\205\235r?(\303Q>SAX?2JK?`J\336=\365\365\032?|\306\271>\344u\315<\214\250v?\027};>\354\327^?d\345\354=\177\242\265>\323]\001>I\307??\200|\005? \323U?\200{\215>\367\352\200>b$Y=\'?5?d\350\205>\323\226[?\264\210i>u\204h?\326/\"?X=B=\n\273\366>9\272\034?d\374\014?Gd\010>\321*6?F\334\314=\374Q&?\342\257\361>S\213\202=\363\264\314>B\354\344>/\375\354>\'\231m?\302\226w>GC\000>\005\025)?\214\242z?\354\353\352>\301\007$=\346\313m?\351\206>>\325x6>_3\177?\243\334c?\275\202\010?\242\206\000?\353\032\254<\323\323\037?\320\230_>$1\357>\327\r\242>\330wh?\307\370\033?]\207D?Z&\034?\027\nd?s\305\251>\'OV?E\246v>\305(\264>\204J*?\263\2328?L\267\326>2\t\324>\314\350\261>\302\024F>\204>\357>|\r%?\217\242\254=C\216\n?\250\360z>\265\307\005?\013N\252>v\035\210=K(\356>\364\242T?d\310\307=Z\2215>\252\301u>Cx\203>\215&5>|]\334>\376ca?\037GX?D}\037=xb#>\334\032A?\"\030m?\272\360J?\253\242[>\000\006\004?\302D\220>\234\'\327>3U\203>?\250@>\203X/>\2252d?p\006\001?\3150U?T\032\220>v?\031?\331dY?d\244*?\336\032\031?\225no>\356pt?L\244,?$\220\n?\031\021\177?\363\375D?\237\307.>A\233\024?t\224~=)\274\355>h\346b?\304FU?p\010\200>=\233\317>A\304b>i\213\311<\367\274\307>g\336\360=2B:?{|\'?\224.|?\243\tN?\231FI?M\335\224>\334\265\\?1~\032>>\362q?H\365#?\202\374\025?_\022\205>\300\3563?a\213\000>\216\241+?\245g\004>\004\2467=:\007f=7\327\215=U\320\314>\010\2561?\337\311\377>rc\367=\273\362\000?\374\247K??\261\366>\265C\270>T2K?\244\270\272>\2263\275>G\234\231=\264Mk?\374\355\007?\316\030\262<A\362>?\te\367>\376\200\033=\006\301l?\n\004\214>\360U\033?;MB?E\250O?Xgp?\034\252F?\177\376\311><\247F?\305\275\014?\014=t?\346\\\037?O\230b?,,->\210\235\034?\335h6>@\277\004?tX<>\332\017\323>-1)?Q\354\332;\334\351\307=Q\346\266=\177\336\202=\000\317\311>N\320D>\314\324?= \005\034?F\344L?K}9?\t\277)?kN<?2R2?B ,>\357\225\n<KKt?\357\'\313>\370O\237>!T\236>\260\333\'?P\313\004>\235\334\364>\003%\353>\254\371\252>}g\364>\226\223\n?\r\327J?\370\362\037?%%\026>\306>\177?\226U\223>\036$\273>@K\377>\354\037\227>\224^t?\240\"\017?\357}\270=\211\216\232>\345A\200>\250\342\335>\265\001\271=rTm?\257\021V?\352q\351>\212-\350>L\2508?^\260 ?W\3453>-\354\277>\314\315\001?6\342\033?k\360X>\317\365G?\022\037`<\340\272H>\253\026\007?X\336\270>\032\367\314>\\\253\005>`\241\222=\323\222\355>j\303\371>\350\220\320>\rq5=\033zg?\304\202e?!S=?\275b\323>\307\017a?\324v\235>\001RI?=\367q?\327=\036?\334\277\325>\370 \225>9\274\255>\354E\034?\310\022`?N\336y?\346\351,:A\355\352>\035?\323=\rLW?g\311\252>M\377i?)\252A>N1+>\256\245`?\013\r!>\336\225\024?C69?\333\251\035?u\242\177?\350y|<\010\376d?\266\311\204<\206\215\031??K\031>\316\'C?\317\316\242>\376\345\205>qH0?\243i\277=\032:T=\207\327*?\024\220/>2\207\004>\251\225\202>\305]\252=\360[&?X\005\347>\303\263\243>\014;\357=\354\224\365>.\365E?d\262\267>\252R\022?.\370\246>\247\252\211>\204~\316>\225\200\305>A\226\024?:\320Z?GF\334>\221\306\010?\221\344j?\177\342%?^\334_>~\365\034=1$A>fj\352>\212\026y?\016\3200?\363\005\317<}\n\236=J\0138?\371\225j?\212\226\016?C\2522>\230y5?\302/\321=\242>\\?\371\206V>\243\351\327>\013\370W?\021\323\210>I\336B?>^\237>\034\353\306>\'Ch?\266\324\'>3\271P?\353\344\345>\352\2063?\374\234o?c\346.>\006^E?P\251y?\301\030\007?\244\202\002?J0\030?V\256\215>\310\273\"?\361\215]?\024\331\212>f\206K?\351F\r?\275\\7?\372\216\366>\215&\211=\356\211\212>\210\204\227>\271f\255>\372\362\305>\r\354q=~z\347>3l\366=\221\251n>\217\360y?\313\032#?\n\366q>-\316@?\023\254\"?\333\002\330>aa\020?\223\n\275><y~>\215\271/?\016\245\n?B;M>I\212X?\331\000\034>\033\030\007?\026\353\r?|\002\374>\241fl?\315\007Q>b\037\313=\215\262e?\357\027\r?\314\367x>k\034\372>)\320\212>\314[\374>@\034\331>l\236q?\276\0237?-\322\310>\025\204\000?j=\354>\267y\343>\031,\367>%\306\356>ea\200>\204\367\251=a\315\265>y\262\275=\330S\201>!\346\035?\'\010\000?]\270\"?P\205\257<\202\367U>\247b\306>\017\257x?\n\343l?\311J\237>\315\352\266>\255\275\367>\352\032\367>\214\024\213>\265\026\'?-\037H?xQu?\376\000%?\346dx?p\200+?\037\323\273>\2551T?\237\315\364=\005\262\361>\234\215\005?A\tp?L{\342>\237\342W?\3707Z?\327\3742>\004\027\225>\277\344F?W7\354>\314e\227>b\035\372=\242 \371>D\317/>\001+w?\230\264>?p\217}?\216z\027?\021zL?^{$?\260x\023?\343\320\217>\230\002\033?-%?=\006\321\320;3\026c>\270`\211>\346\225\001?\301\036}?\225Am>\314i^?7\0263?\354j\274>\n\301|?\017\2466>]\334x?\334\274\302=B\325X?\370\341d>\265\205\333>H8\265>\035=\004>\274\272K?z\261Y?h\310-?\261:\020>I\356r>\220Uw<(\024\031<~\177\323>\207\373I?\333/i=\333\014\260>16\312>s\251\224>\210\003\333>\216\312\024?k\240M=\030\327\272>wOU?\234V\">\217\270F=\365\214\245>\n9\251>oU??\030\005\227<\025\313q?\363<%?71\202<2\353o?\376\237(?\211\327G?\243\310\247=O\352d?X\177g?\250>\215>G\007\230>r\022`>(\\M>\275\006\370>l!W?Qc\241>\227\007\326=\333\004B?\334$U?\213\256x?\362\213\022?\022e\267;\314\214\360=\221\303\336>\250\233S?\231\005R?\241J\302>\'\223\177?\206\220\037?\024\236K?]\222}?\317\005M>\203\3734?\227u\237>\240\272\250=\025\333\313>\340\\;?\'\001\033>\013^\324>\270\230u>\n~\022?\374\345\343>C\344\203>E^Y>\n\331]?\270dn?\200\341\352>Y\":>\317\"y>\226ny> \376*?\375\241*=\255\020,?D\033r>\'n\330>\327\326\224<\234\255\021>\313/l?l\237\004?\236Q\'?V8J>!,\271>C\032\263>\n\212\207>A\247_?\232\305N=\"\366\020?\264\177~?UzC?\250\201P?;n\276>\010L\330=\214\305(?MBg?\237fw?\275\373\375>4\177\025>*1X?\211\323O?\336\325W?L\262L?o\326a?F\333C?\232\313&?Q\022\363>\271\030Z?\034\236\333>\031S\355>I\036}?/9\316>\347o\322>\317#\243=\005\356\220>\372^\242>\273H\255>/hb? \2061?\241\\\332>\343U\030?G\013h?\025\273r?\275\255Z=\2510\225>\002\240R?\252\267\023?\022\020>?\331#\256=\220[-?\262\363H?\r\033\225>\322\205\337>$\365\362>\331f\035?\276\272\233>\035\323\314>\354Q\336>c\202\r?3\331\302>:)\237>W\361e?\016\300\334>\354\363\001?\365\225$8Q\200r>4\203\273=g\357\026?{\227 ??}->+_9?+I\307=b*$?\363\356\235>\231#^?3\240\273>\roh?\002\365 ?\321\rH=\265\213k?\265<\334>\305lc?eyF>\032\n\267>m\253=?\\P\233>\257\0012?\354\010\031>\337\026U?\027k(?\006\211\\>\346\212\006?\373\352\021>\261\233\322>Z\tl>\272\031\023>\273\232\355>\n\333\273>^K2?\\\222T?\202\302\"?\376<`?w\375\233>\002-\316>h88>\263\351\002?\374\277[?\007\315.=\305\254%=\323\232e?|\027??=\217\224=\007J\000?6\0330?\242\277\261>\316\006\314=\353\030r>\254x\361=\223\2209?\370X\201>\205k\255<\2053,=\325\313\351>a\206\270<\213m\322> \037q>\221A6?\020\277\270>e\266D>\302=\000>\366Z\030>\361\216=?;s\332>\332[b?\220B\273>\314\321\274>\356\324w?0Ly?\023\023\331>\242W\t?\265\377\211>$\333\372>P\312e?\245gM?\340\205v?\341g\037?z\2744?#\"\223>\324\'\024>\300\341Q?\246\303\311>\217/0?k\320\315>\004\245{=\335\235\362>\340\323@?\2111\326<\231jN?\345t\031?PJ&?\205I\334=\335ES?V\227\320>X\242\267>\305\273a?u\252(?\325\340\240>\017\274\250>\373I)?\030\344\203>\013Z\334>+\344\036?B\310@?\3631\022>\026\207W?\235\372\373=\245\235\322>\314\363C?\206s#?\202\210\036?oa\037?b\037\336>\271\270\320>\033\371\032?>\024)?s;M?U\025\331>\031u,?\370\340\226>\3740J>\375\002t>sp\275=\010\367\207>\007i\302;}`\203>\227\377Z?\277e2?e)\032?\333\\s?g\367\361>\335o\t?6\320\236>\357M~?{K\006?\010\277B?\303\347\230>\"\376\255<\354\375\000>\n\216\363>.\024Z?\247\351?>~\353\266>\2146p?I\321\014?\354\313\301=u\216\355>\210=\207=c\177?>\014\375\036?TF\004?\3627m>\224\262\300>-m\276>\202\364d?\177I\204>\257\230\376=\224\'\343>\021\357\305<;\016x?\204\372\325>\205\3451=\022\177\n>\tp/?3\261\335>\210\024r>\271\242f>\251\210<?\3460(?k\021]?\036F\221>\357|\324=\177qE?J\217\370=\330OG?\004\026\326>\304\212\223<\001\315\266>\"\326c=\271\314J?J\227\003?\334\302\366>k\312?=\316\256\035?\026\247\250>\204Y\263>X\313W> \221\336>{4\000=\210\343z<[\226\035>\236\253T?\310@!?o\337h?\210\027T=\232_\237>P\241s?\334\230\353<*\346\362=\315x{?\321\204&?\256\014\023?[\025`>FeX?\000Z\270>]\307)?R\342\031>b\325{?!\270=?\r\321K?>(3?2xt?\266\000\253>\232\220,?\3050Q?-\276\004?Q?n>\034\232o=\373\204I?c\254)=\336\224\227>\201\177\202>x\266\301>U^\362>\350\315\007?\016\373Z?\322M\013?\262\021\354>Sz\334>|\307\317>\242r\334>Ld\354>\273\230\203=V\333g?\002Hr>\023h\003?\244/\234>\n\r\345>\324\204\003=Wl?>6!\214>\200&\000?\331\305\274=\327\316\017?\201\365`?|\364\317=\023j>?\266\311\000?V\3306?(\341\274>\006\315\330=\226s}>\024\230\355>\310\370(?\245u1?\030\340T?\317\365C>\214\344f?\373J\350=h\004j>G\025[?!\360\">\316\347n?\035\237G?\265Q\256>w\371B?\221~<?\266\200\254>%\320\213<\023\324\023?}f\014?\331%\313>\2623\220>\361\264\316>\322\022\r?\333\370/?\216%;;\271;\305>\377H =x\030C?R\363q?5v]?\351\246\240=\361&s>\337#\206>\021\310k=X\014s?7fI?6\264\027?+\263\241>\340\356<>\376\037\343>\277$Y?3\277\257>\376/\231>1`\206=]HG?\302\306\027?\227\023 ?~\006\346>e\024\020?\326)\300=\037\023\344>\372\301\033=\177\005\t?\006u5>\266\214M=\250\014\225=\"Q>>\0022R?A\0204?\371\267\036?\362\363\211>\363v:?\376\017\300=\346[\034?\254\251\246>\230\372\016>\326\360\002?\r\035s?\220G==\346\254h?\223\331M?\312\302\326<\322>F?.\255@?\336\236.?G\273\007?:\323\310=\212\371i>\363\026\032?\366\353\025?fHO?\300\375\022?|\357n?s/:?\320\365\240>O()?\234\337%>~=\232>\235\354\245>\3028\236>\360\345\037?\375\301\327>~\240p?/\265`?\207\031^?\027U\000?\2745\004?L\237\037?\376\n\343=\370(C?/\366\261>\266_K?\311T\353>\206F\326>f\370A>\307j\305=9\266\211<\025\232\'?\233}K>\375\301!?\371\365F>\022VQ?\354\216%?\313\355\231>\201t1?)<v?bOl?,\221l>\341r\016?\331\337\017?[A\266>@\302\323>\312L5?\267}(?\312`/?\245\350y?\034\357??\030F\'?\251\007T?\010\220.?`\317a=eH7?\237k\224>iU\002?\230\2166?\266(V>\321\273\021?Xp\021?0\005|?Tu\014>\220\223\020?!\263L?\370wx?\272\010\377>\037\313\036?e\003\004?=\317\372>\312\225>?a\032p?\330\252\316>\'\300\033<\334\247\204>_o9?b*\240=s\315t=\003_\320>[\315\362>\377\367t>C\350\266>\016\225\373>\214\352\177>\276\037>?\271\334\010?t\262z?-\265J?\373\344\365=\001}\255>U\2701?0\320\314>$\321|>\255D\014?\312\377\256>\014\221,?\021\211\035?\237\023\025?\021\370\336>\224|%>\321\215\360>RFu?\204\037\021? }]?H\0147?A\323\010?\207\202W?U\030@?uF\250>\233\017\350=\220\326\312;g*A>\244rs?,Vj?B\027\303>\301.\303>In\265>x50?\027\033#>0\264\003?\323\263/?\316\224\212= \314\205>!\264<?\332\225\023?\303\024l?\227\345\310>\303\3060?Db\021?\311\027\032<\3212\276=(\3711?}.i?qa\224>\034\032\274>\024\2350?\251\236G?\\/\206=\361\252\201=3\024r?-\2303=\010\322$?\242\254\360<\315\242\260>\010\017~?\362Sa?\236y\366>\353Y\371>\321\364m?\304Ns?\004\241z?\"5\034>S\312\224>p(\223>S\2553?c\3053>\321(D>\306Ub?\326W\032?\343\315\">\313\352\010?\3650y?\351\030W>=\2660?>\024\\>\341\357\177?\035\206\255=\202$E?\317\003P>+\036D?\267\005M?e\247\\>\271\016\304>U\326_?G\367\360=q!4?\312\312\257=\206h\r?lUn?r\323u?\367\211v?S&o?\246\nY?\241\334\245<\254\332/?\220\275\007?\264\227\007>$K\333=*_,?\016l\274>\266 \n>\315iN?\212%\331>\360\013;?\317\305\177?:L2?P\266u?%\347\353<d\020>?C\213\000>|Z\316>\251\\Y?\241 I;|\371\342>)\207\261>1\272G?\000\231\364>\261\2344>>\372\305=\007\357\233>c1^?\356\346$?\030\272\267>\377\2409>c\213\367=\3770\246=3\352\001?\333or?\327Kv?\375s\320>#p`?V$\227=\024\267\373:h\234\000?&N<?\316\361\001?\'J\230>\333\377\202>\'\320O?\016\274\337>\343PC?\370W\033>\017\204\272>t\217X?;C\022?\333aI?\376\327=?C\013T?\014\0148?\"%\r?\243\267\260>\000\003\221<~\316(=\206\3027>\301\365l?\267[0?\237\331c?P\253\224>\200\274\332>\265\374]?YA8?\242\200\331>~\326*?\377\245\001?\017g\024?\275\232y?0\030P?\007\305\265;\322n(?\270\037/?I\276\253>\t\'.?\371\263\024?U\251\344>$\030\221;\216\336#?#X{?\005\216S>\307s\177?q\355\227>M\346o?\254\354>?\205N=?\277x\235>/\225M?\336\360\307>\021}\312>\362gx?\301dF>\010K;>\351\020\216>\322jS>\225l\207<\365{5?\2450\020?\375\245\021?\350\3621=\315\221\017?\304\032\027?\327%\t?\324\037\037?<\270i?{\322n?\245\010\352>\311V\013?\341\353+?\035iZ>\340\035m>E\275d>\207T\227>+\353\021?\023\"`?\222{7>A\002\026?\277\256O>x\244r?\367\254\372=\201|\023?\036\342c?\362\202b?&\037\214=\345V\271>\273\353\201>\261\333\353=\253}\005?\366\266$?\331\301,?#me?\374\325Y>dB8?\034\346\274>\217\3427?\356Ym?\226\264/?\314\022\'?\322\262h>/:x>\357\311{?t\272\022?\360\377u>l\2577?\271sm?n\333\n?`\300\007?\023m\267>\014\204~?4\312\244=\365\273\215>\367\260D?W\372D?FL\351>\376\356\216>_x\216>\256\024\356=!\2206=WDW>\0233:>\357Uu?\020\0160>\270\205!>\331\301{?\255,\234= b\020?_\372)?F\322b?\260\315<?\025\032\025?d&\244>\340c\005?\347!>?&9\032>\307\346r?\320\200\206>\234\202\021?\372\2400?\027\003\177?\340~r>|\273b>3\274\'>m\373\033>\275\374\223>\364i->j\030\303=\233i\370=9o\315>\375H\345=\202o\310>\031\333i?\365l4?\177&\260=\277oV?\212\322\245>\323D\020?\251\324Z?\305\227X?P\306W=:\226\036?\240\324{?wP\037?>~\004?46_?w\036-?{\226d?\t\346P?[ql?\310\2678>\177\023r?\264CV;.\251M?\277\216\204>\253\3464>\372>#?\310\021\037?\234\311(>\032\270\243>\376\230/?@[)?1\272\021?z\024\336>\"B*>\307\375H?\243\276x>\305\374Y?\226\267H?\322g ?\222s\022?&\266\t?\246\247q?\360\241\n?\355\217T?\375G\014>a*3?\250T\357>\366\226\017?\010aw=A6k?>\374\230>*\'\r?+\037\215>\210\264O?\330\010\344=\227kz?\262*b?:\373\014?\3148\022?\240\005l?\354\327\306>/B\002=u\332|>\232\310\207>\033\345r?\300\320=?^G\264>;\307\001?k\223\255>\333\224D=\250\265t>Y\370\304>\\\025\021?o\027\353=\264~b?\222\335Z?\234YF>\'\223z?\252\020]>z\255\003?x\272\211>\252\025\257>%\3717>\003\335\252>D\363\323>\242\034u>\271\000\350>\256\262)?\n\327X?7Qu?\204,\350>\217\007$?N\343q=X\322:?Y\346!=@\355\002?c#l?\1779\000?\311\323J?\244\371\245>\337wn?\251)L?\206-\325=\342\257\316=\003\252N?9\347\t?j\031<?B\205O?kq\310>!\254,?\320A\260>\226]x>\330\277\025?\336\1777?\231\2476?\230\026\343>\030E\233>j\250|<\004\214,?g\223\345<}\266\254>tK\221>#\000x?\007IC?Q]6?1!_?(\247\311=\025\322H>3\235:?\220i3?\225\223\341>]I\005>}\360f?Z\260\026?\232\371\014?\\o\\?\360\252\231>o\247F?\227\323\031?KR\304=\360\246\236>\177\312\265>\275\314l>*?I?Q\304\304>#]4?|\361I?\026?\325<\026Y*? \343{>\260\204*?\352\\.=\021m>?\014\010\002? ,S?\254eJ?\276\273\034?M\224&=r\203<?\2401^?vw\234=\351\3076?\227{\263>\n\211+?\326\320p?\351\203\267=n9\014?*\032\362>\337\3155?&)\262>\240<9?I\255\201>\242\017\230>\244\267J?\311\356\032?\245\263N?\332\035\002?\374K7?L\372\236=)\315e=9\333\234>\001\271\375>\315J\306>\353\236=?U\344j?\361\334-?n\311>?\257.\251>\225bL?v4\335>#\3251?\370\321\220>w\212k>f\033W>d!\014=\267[\203=G\322\027?l\242*>Y\240\003=9\331w?\350Ua?!\263(?\374{\377>\365\254\372>\033\2129?K#\245>\372m0=0\215\033?\226\311\251>;\245b=\025=q?\335\354c>!\'\360>\037\242@?\004\316\'?\314\270[?\255b\223=\370<\313>\264\367u?\004\235\370>\202\000a?\253\346\001?\223\034\177??[K?\037\361\016=@y\322=W\355*>f\270}>\334\031\003?\347n\360>\350i\333>\275z\035>D/\270>\250\304\306>\234\205\021>&\303\013>\257%S?h(\353=:sl>J\345Y?\005\345{?4\363\017?\315^/?\256[$?\371c\034<\227\231\r?\026\177a?=LD?\312\021u?\214R6?_|r>$\2504?\276\231}?\244\277?>\331C\355<:\264n?J\335\235>\356?k?[\242i>\262\324_>\034E\007?h\352N>\254p&>I\000\033?Oko>\375]\201;\215\347\250>\356\367~?{i7?\342!\365=3\257s?w\023c?b\324#?\347\'\014?-\230\362>\225\363\337>(\023~?\273k\201>gf\000?\340J\327>\rL*?\0026\310>6\361_?[\231\363=\214\267P?X(m;\367aP?\317<\257>.#}?R\230\036?\225\364}?\205\324P?_f\207>3\372;?\324\3643?\001Q`=x\021\003>\213\256`?8\213y?O\"\025?\361\266\260=\255f\024?\203\334\343>\324\004}?\355>>=X\024\324>\240E\223=\276\2411>v\236o>\273J_?\377\231\354>\004\271l?\027s\361>\247\304\326>\366\220\033?\356mw>vc\363>\223qy>\202\032,>K^\000?q\375\331>\264\006\027?jwH>\367\266\'?\371+\016=\351\255o?\365z\365>\234\363\303>\214\370\357>2\3449>!\341-?,\3461?C\377t?.\335\031>\003\314h?0\304\\>\314\253\204>\225\360\016?\001\017.?\003\004Q?u\220\020?(\367\017?\004\307\363>\'o|?;\213\013?\206\362z?(TC>b*c?\003\355s?GO.?\017\303\035=U\240C?\025\261\257>\251\334|?-\205\006=+kA?5\220\303>^n\006?\345\311\346>\340\357\230>P\020\347>rQ\027>S\'\027?Bo\223>bq\022?\005h\306>\242$[?L\021\004=:\366c?\307\277\\?\210@\333>1\360N?\376\231\315>i\315\362>,\034p?\307;8?\200AP?\360\2670?\362\230\370=\377\222\355>wD\020??\306\006?r\224@>\324\234\301>\351\2502>IuJ:\212\223`?\"^\031?\275\037r?\347Le?\365\312\223>\330\266\320>1\020\014?\213\177\332=P\360]?\277\203\2069\304\021W?\001q\316>\327m\241=;\377\351>sD%>\211\367\234<4&|?\230\207Q?\244\257z>\307Y\344=\261\002\267>a\241\340>\355\246z>\2224\003?*\241=>\030-\003?\371\267\341>_D\016?[#\346=\254A\305>GW>?#\367\215=\221\307\306>\270\222<?\250\322+?\'\253\264=\004*^?\333\225\322>]]\'?\357<G?Qwx>\372\353\232>5\031!?\244`\270>\257\001\347>\344T\033?\177Z2?\234\0338?u\202.?q\204_;&\213N?\227\020o?\250n\004?\016f9?@\366w?\'F\034>K+\010?B\363H>\344\217\261>\255\267\177?\303r\222>\\;\205>\t\001C?\336\3011?\233\016K?\326_\027>\346c\355>\246i\022>\'\336[?J\303n?\371\032(?\302|O?\024}(>\233\310`>\246=\004?\030\267\000;D\326Y>2&\376>`7\370>P&\t?y.B?\337\005d?\351&\260>\363\217V?_\346F>\241\264\n?-y9?\224\303,?\036\2137?\335x0?\302\330]?\252\350\">\321\231\327>\033\336b>\327\206J?\'@\232=z\347\227>\363r\030?P\355t> \\\343>1?\302=\034\201\211>\274\232\277=o\272??\023?\276>\217\330R?\346H\351;\205\341E?\224\353&??\304\231>@\235%?e|f?\346\261>?\010\372\376>\303\362@?2\037\331>\302\347\030?\267%6?J\216\030?\247\217.>\240\2042?\362\016u>\226F\304>\230}??\376\000\346=\376[\327>\265\235\334> V\304=R\3334>\317\342V?\032\356g>5J\034=\027.\326>\366NS?\264V\303>\003\200M?\300b\022?\227\344\277<\024\376\206>\2208\271>\032\025+>\346\362\023?\336\376c?\212B\240>P<L>pjQ>!\014\375=\0059H?1\375\006?\327G/?\221I:?\261H`?\311|\226<\204\346\352>\230\233\205>\332*\375>]j\r>\335\347\241>\"\362>=u\305\340>\304\376\202>\320\205@?\3671F?\353\247\324>\220\000\320>\234\250\346=9\0064?:\330\355>\234\3538?\023H\306>\017\007\\?`\332\277>\223\035\205>\004\007~>\321<\323==\302\230>N_+?\2134\261>\253\201v>\370\003\306>a&\256>\250-j=m\355\035<\006\263\017?\300>k?\016\222o?\366<W?\200W\253=\363a\243>K\007S?6\347\237>\232\201\227=iK[?O\327\020>\"px?\206?\027?\375Uq?\343{\031?R\3036>\354\341%?p\310\303>\234I^?\006\277\245>\215\233M>\035\336\251>\341T\025?*[9?\010e\001?\010\006\027?\225\371(>\177|\302>gb\363>\\\316 ?Z~\234>|Y\210>\247\032\317>&\333V??\3521?\200$\353>^\252\237>\350\273e?\246g\203>\304\202,>?\352@?l\231X?7yz?y\2156?\026\374\271>\311?\002?(\311r?x-\340>[\341:?\220\221W?\370ks?Oe\351>j\3203?dK^?\376c&?S\302 >\264Q\'?\026a\367=\301\373k?\302:\222>P\254\t?i5\n?\373I9?\026\035s?u?\022?\223\305\247>\350R\264>\201\207\\?>\255\177?\317?S?\373\307}>\275\0035>\366\3032>On\035?\323\271%?\014\373s?:?\221>sj1?\312\r\017?R\307\177>\247\226\334>\326\355\001?^\2149?f\312\250>,\014[?\334Mu?\245\261\220>\301\322\024?s\331\300>\331W,=3;\352=\036lC=6X\002<\304\3662?\013\256\216>\212\025\332>\237\222F>\203\210\256=\352a)>>#6?\211\035a<\r\377\254=\212\217I?9+:?\367j\220>\236\300]>\365C2?e@\000?\312W\031>\261t\276>(N7>T\253I?Vqx?2<.?\213r\005?S!\377>kz\210>\007\360m?\277\321\264<\2071\357>\304#n?*wO?\026\206\201>\220\300K?\243\031D?^%i?K\334>?F\374^?\230\250\006>\004\370>?\ndQ>T8=?\2230#?`d\355>\020\320y?\351\020\010?\007\255@?\232E\246=\242NG?\026B\330>\260\273)>\216PR?\274\225\253>:\323\"?V\300Q?\362g\317>e\032g?y\264g>\366\027.?tc\211>\026\026\210:\014\352\021?\273\355\002?n!\217>C\367\017?S1\201>\317~r>}\217\013=G\202\231>\222\'\301>[\3269:\245\2446?\004\r\202>\364\205\244>Jyi?\234\264F>\033;o?\253\236Q?X\252\362>\006\273??\301\241\246=\312\365\204>\271\255_?u\377.?\326$\005=\365\234 ?\352\022#?/\370\016?\353uV?\361\357J>B\0070?\346\013\007?\361J\001?\232\037@?V\213e?\233\035\312>4\2563=\217\264\371>]\355u?\262\356\303>\177G{?\347v\320<\321D;?\21566?[\311\372>\3471M?B\364\325>\235N\321=\2210\347>CN\033?\'\235\223><>\005?\226-\033>\351(J?u\2619?\350\264\016?\214\363\327>\266\257\304<\251\223q?lH\213>e\371\311=\177|c>\235Y\016?\346\307\215>\177\307\013>;\020\352>G%&?\266B\236=iS\347>7A\032?\313\266\007>M@V>>\366\300=Z\031\\>\277\222n?v\231\324>\026P\351=\342\016Q?\243\242`?ndU=\010\0356?x\r\177?\216\\\007>U\202\245;\355b\362>.\307\201>\254\3619=J@W?)\025m>0\320\241>i\034\036>\024\230\202>z~\370><\340\177?vJ\276>\256\370\244>w^\200>}\307\001>>\2474?w20?\314H\234=gVw?\301\255P?\004#\177?\251\272\365>\0213\024?\014Z\272>\217D|?fH\224>\2739\273=\304\201\204=\r\350\332>z0\243>\255v\005=2 \271=?\361\377>\200j\260>(l0?w\270S?\235\232x?/\356;>o\367v<\366\322\034?\334\215=?(\305\313>\213f\217>d^\223=\276]\245>I\245l?\277\330\022?\211\212\356>\254QR?9Zo=1U,> :\234>}\327Q?\276\020\300>\010\177L?\255\312\233>I\363\335>USE>f\021\003?\205\202N?\233qN>\2027<?\243\363\312>rEu?\245j\312>p\277G?{9\014?\240\273(?\211\355v< \255P?V\306\274>+d\027>\233\365\177>\020\241m?\326\360\031?\3321\370>\335\311\341>r\340\006?\035\355&?\002\234\261>t\361\327<\323\303\031>\213o\314>\002T\265<\246r\013>R\037\306=\220L\350>U\325\004>\330\313\342>\247\260\267>R\010d?m\177??I\300\224>\3662T?\006<\257=W||?\216:\232>w<\036?2Mu?\326\023\234>-\3271?\021g\n>\267\265\006>\300op?!\307\026?*\233\006?\331\242a?\311^\017?\312\331\370>O\314\327>f\370\344>\233v\312>\302F\243>42\212>\215F\235<~e\321=\245\346\265>\302\274\360>N\205\027?\240\003\006?G\257\375>\311\010\257=\256\312\001?M\301\325>\201\3443?\to#>\254\3458>\377[\317<M\376v?Uo\211>g\357F?I\266\'<\342M\036?\020%\005?#\333\334=7\0018?\017\365\345>\235m3>C\006^?5\362/?\2532c?j\017\250>\334Co>rR;?\033\326@?\350\337\034?\301\231T?\357\342\224>h>$?\336\227y?\214\216H?\317\002<?\306\007c?.`f?P\361\024?\262S\006?k}1?\341~)?\243\\O?\340\303O>\375\274\236>o\005L?\214i\000?\265\322V?\005\326\177?\340\0230>\376\364\366>i|\030>;\273\001?3\215\004??K\021?4mn>\206\237\233>\363@x?\357\317\030?D\361~>\245\037M?\003c\266=\023\033\014?M\220\004?\257\254S?\211\334\365>\031C\r?3\2615?\370\332\361>L\343\264>\331\376>?\345\331\000?\3006`?i\020\226<\201\250\366>\345\217B?(\2334>^\274\037>\322\026\240>\"\364Y?*\322\324>yK/?\302\230q?0D\247>\031\235\227>\016\024\032?e\023\007?\363O\265>\224\357|?\242\225v?{\3177?n;u>\264\346\256>\375\266\211>\231r\312>\211%\325>o\337\212<\343/??-\332\207>m\027w?I\301\340>g6\336>\260\026\326<\360\323d<\347\\\375<\355\351y?\210\304\'?\007Q\366>{\306\023>\\6]?\215\254/?\375S+?\3039\262<\223\017\\?y-\230>\270\'h>,\1770?\351fQ>$\2628?,\203\301>\374\354H?/_\247>)\275C?\304\272i?\241GY?ks\331>p\205\027?\243\323\366>\301e\027>9\357#?\262\022\314>\201\302\370=\2044\010?i\245\220>my\003?\251\'\261>\217\250\227<\t\253k?\221r\332>C\227c>4\014z?_t+?\302\323t?\343v\027=\343\245\177?\361\321W?a\307\347>T-\234>\347\304\237>\225uE?\227\210\t?I?\362<\256\271\346=\231\274\256=\330\246n?\274\226G>.,\272>@W^?y\314\r?$\346\014>\343\216\334>\010}a?`\027\216>\275\236}?\027K\003>\245\333\353>\314\363\305>%\362\344>B\224\337=\301\031\030?KM.?P<G?n>2?V\213:>\322,\337>\212\323I?\023va?r{\013>\207\215\271>\230\031\006>\002ru?>\352-?\360X*?>\323r?\211\222\355>\002N9>O\362K?\2463\230>G+5?G\357\306>\'\261\031=\205\336\003?m?2?\377\no?\n\245h?\254\335\020?\206b\303=jh\360>\203oz?\007\204Z=\200\327\207>\333\340m?\255\267d?c&\007>\031\350\177>C\014b?\370\332 ?T\277\365>@\357\244>\253=\036?v\361\016?\376G\352>\201X\010?\007W\006?\017\211[?,\000\316:\322\336\313>:U\024>\375\277/?\204\207\305>\261\302x?i!N>\000\021\362=\004^5?\304/\310>B\346*?QV\007?\010\263-?\020\025\177?\362\311\321= \035\t?\177M\367>\242\312\">\230\374e?\301\n\226>\371\335\332>\332RR?88k?\264\\f?\375\354\001>\276\212\353=\217\313\n?D\253E=Tsv?\273\236z>y\360h?_\001\002>\002\177\031?\036\276\366>\314\230\320>\007\256\030?\275\244\037?:D\001?\246\255\330>U\271F<\347\240\006><%%?Q\354\001?Q\260\005?\207fr>B\300\226>\361\177\206>\030\251N?3\273Y?\210h]?=9\207>\320\304\231=\013B\300>\247E\316>\265\226\221>\223\337\351>\316\264\265>\267\2255>\'\361\225>\271\353|?K\252m>\223H\207:\320\254\325=\025\006(?H\336G?ak4?O\003\216>\263\177\034?s\363W?\314\371J?\034K7>\325\267]>Z\006\253<\205I\313>A\334S>;k\024?81r=\34672=l\003\014?\016\237\300=\036\305l?\3559\375<i\274\307>\027{\342>\303\222\365>\032z\337>z\2448?\350[7?\252\377\366>\'\022\325<\263\210G?\202\014\360>\033\005c>\372\033\010?\350\"\325>\375^L?\010\310e?G5\021<\004\3329?\211\362 ?\250\336\021>\033\275\372>\366\253[?\252\317l?\036\375@?\326\374\323>\021(W?\177\305}?\341\034S?\234u\013?\325\037t?76o?Oz\226>\273\020!?:p\320>CzL?\005\276(?\223\006t?\3663\377>z\246\r?\343\236#?\000\222\003?\033\2619?)\3571>d\317\202<iu\353=\007\t\317>\236\274O?Q +?1\326/>O\300\017?!\177\036=\257Y!?\0219\340=~\214\023?\203\254\333>\253\351r?}[\034?\334\235\370>\232\342\366>\003\260\215=\355\003:?Z\255\023>+_m>d\314;?\355\306\321=xN\324>\003y$?\243\240\343>V\212O?k\252\325>\270\023#?\r\326O?\214\217\"?6\322\206>\252\027\002?\347\371\025?u\3213>\316\352\177?\014\"3?\010\261}>\243\003\326>F\241a?\234Z4?\237\217I?P@f?\tYR?!\201L=&\377X?\373\216l?!_P?0Q\256>\013\201$?\263\026!?\250\200\230>\266i\226>U\372t>x#\271> \306\341>\023\303\375=k\242\373=y!\372>\177O\037?tj\376<\264k\026?,0O>\357\276\262>\341 7>\320@1>kos>b\266\310=Wz\300=\320\225\024>?\026A>\220\2544?I@\022>\312h!?\026Ef?\035\017O?\026U3?,\261\237>\204\330:={\274,>\224\310F>\307\345B?\306\350\326=A\032\300>\363\313\350>\331\310\033>\324b\001?\212\245z?PP\260>g\210\203>\230S\365=\300G\\?\325\365E?O\232Y?~\234\346>\316!\217=D\322\031?a\337\t?\t\305\311=I6(?F;\216>Q\240\300>\302\n\255>\241\257\035?\275P\230>R\301{?\020\270\203=\345<\021>\002\344`?s\247D?\242z\257=z2\033?\013te>fQ\233>\027qH>8\031\213>\3350\302>!\306\257>R\004\274=\250=I?J\243&?\255Q\264>\263\330\330>\340+e=b\334\243>\251\371g>\"G\261>\374WD>,\227F>l\010\333>)\014\031=Cb\260=S\245\321>\261\234\263>u\036\003?K.X>y\245v?\240d\323>\001lt?\246\360\201>\355\2135?\371\344a>\333\341/?\362@\261>$\304J?\254nv?\202\244W?\323\200]>\276\333.?\247\256??\362\2174?j\261\373=W\360\006>\032\214\036?\333\031)?\260\247\314>\332\366w?\270\236\002?D\370\311>\220h\370=wL_>r\226-?YQ!=\024G|?\321}O?wn\337>\212\204\204=\222%w?\244\343~>|Y\n?\0330R?Vq\235>l\271w>\334nT?Q\371\037>\224\342\"?\344\371\326=?\004p<+\021O?\273\366\241>\251i\022=F\275\251>\250\266\023?\214\007\274>\332}\305;]\017e>w\230\361>\245D\022?\363\033F?\226\226\232=*T\n?+\r\010?\256\317\t;\235\343^?\352O2?WA\010>\344\3321?w\340\237=\331_Z?\364\361\r?\227\366\030?K\300\033?\034\251V?\342\356n>\303\315\035?\360\225\332>\3347{?\017\367\032=\0326\307>\374\247h?\247)k?\341\244m?\375\030\270>\017Yl>\320 b?@\325\177?\231x1?\201\323\001?\026\321[?\3332W?\016oa<\245\247[>\370Y\234>\212\214\365>\021\365\017>\312\305\312=0\010}>p\261=?w\226\003?\300\206C?\021?0?\010\036\323>k\234\344>\350\354\000=\217\363\233=\376\022\322>\326\351?>\220O\265>1\333l?}\304\"?s\315\030?\231i\306>\212\035\022>\331i2?P\220\207>\312\372\325>\2113\311<\005\t\371>#*\215>\315\314c?\363\255M=\035\232\205>E\270d?\363\376\031?s,\021>\216\314\017=\373\314@>\253\256\310>7\377h?\251Y\344>X\217\033>%\302\322=3\034\331>*\361\361>.V\016?\243d{?\027\241\021?\210\301r?>\317>?\336\003\037?s\023+?2\227\t?\002\200{?\026H\367>\361\003\177?\322\220l>N\334%>\220\373\034?k\335|>}\344}?\276 \214>\266u/>\274\216p?\353\313\344>\277Fd>\205E\002?\"Sz??t\247>Yw8?\331\231B?\324\024\032?\032\340\216>\265\244\254>Q\304\\?\375\302\033>\177\251@?}7Z?\256\177\"?;\017\000?+\267\310>!0\367>,Vd>_?\216>W\211\257=\261\303-?\304\325\032?\005\263\277>\200\326R?\264G\007>K\001)?\000\021\024>,\204\n?\234i6?\364F\315>5^C?\246\203H?\000\347\000?\311S]?tzy?\013\236\323>d7t>\242wr?\211\223i>\310\353T?Y~a=\357\344\243>\234\235\236>\327\363\035<;\2476?\205\327l>+HT>\204\370t?\373\302\n?\362ba?\347T\020?\332l\010?\201[\233>2\200\027?\350\350\031=\260\257C?\t\227l?\310\314n?\266\213<>/\275F?\344\316:?\362\304\342>\025\256\232>{\374\362>\217\006\234>\n\013<?A\372w?\353<\374>\333\333\002?;S\177?e\250\224=\205.\030?\267\234u?\020\360#?\t\247\025?[(N?Rt\355>\343\222\250>\251\365\'?93n?\'\320\310>h7\302=-\304#>Lq\024?\r\370N?-l\034>\302\263\351>)\025\366>\342\272C>\212\277\244>a+J?\2758\022?\326\355!?\252\377\335>Uv\264>\242\346t?c\336\031?\362Y)?\315\233H?\330+~?\021e\235>\376\241%?{\026E>\314a\n?2yj?VZ\017?\252\374\341=\036\327X>2\260\340>\202@;>\243J2>a\244p>\323nz?\257\350\201>(\375\224>\377{\300>7\366E?\243DF?\241\224t;\334\232\264>\212\243k?\301|\233>\336l\352>\243}\023?u\201A>tN\233>\021\225x?y\024\250>\322\203\250>\314p\376>\030\224f>\272\225+?\352\rJ?\334\374}>\364\227\330>\266\257p?1\373\377<s\367O?\350\3046?& \335>c)\271>^\333\022?~.n?\331\202\343<tW\320>\0246\305=\247Ui?\276j\365>#\312\016?\317\3450?h\302\037?\330\257\014?\222\363W?\260\203\036?\363\004s>\204\325\215>\030\310+?\313L!>_~\033?\237\031$>r\344\'?\220\177v?F\317&?\351w\037?\352\340i?3AQ?g\216\031=\331\'\037>T\251*?\006(\032?@0\362>}M4>\312\366\t?\000\2406?\330\n\307>\0138v?\014Oj?\307\337\010?\261I\343>\376\213Q?\236\251\376>\250\327\224>A\275y>\002\353\313=\177)v?A\022\021?\363\t,?\226\021)?\216\372\225>\243`(?\201(u?\340\020\026?l\362H?t\364E?\307uE?BFt?\343\215H>)\351F?\247\274C?\231\206\341>\276\2529?\321\323g>N\331G?\244\301\002>\322\337S?\"\342`?\345\243\037?\326\0370?\035Ja?\223\233\245>\206R\216=\264\241\201>\374\316\026?\347i\263>~\331M?[%~?\352\321w?\240\303\'?\003;{?\025QR?\035\001\376>Xxb?S\271I>5\202\224>\232D<?Hk.?J\201h?\216\033|?\216r\\>\332-\276;bi\007>\224\300E?\204\266\267>s>#>j\372\276>\204f\203>\376\036<?r[\023>\270\377\345>\236\237b?u5@>\266!e?\337\327\226>K\217\346>9ys?\253\356&?\335\016d?\360U\r?\301g\234>\300\315m?\355\230\022>W\3029?w\205}?\345\237)?\333\232)?\010G!<\206\347x?\017qc>\245x\302<o\316\351>\025\032\361>\233\033\312>^EY?\244KY?u\240b>\021\362\200>b\216\021?\262\357\332>\324\243T?\335X\035?\277\201>?U\255\210=G\303S?a\206A?\343\221B?\230\204f??\302\020=dF\333>-A{?\203f\221>98{?;\365\256>\213If?^\205M>T\373T?@~\016>b\004\220<\272\326w>RrY?^x\311>\002\020A?\366J\033?y\207\221>i\352\314>\307\021O?\3636p?t|\025?O\247h?\177g\330>\351\345\310=kO\242>\027\275\277=\023\2237=\3610\\?\214\350\255=U\322\024?\026\261h?\365\325p?`7\372>\223\260y?C\262\230>\246\202B?\252-s??\355\n?p\264N?\245S\006?\343\0065=\330\030T>\033\013(?\364\230\005?\240G\315>\332\000\322>x\020n?\374\034a?\233Wm?\031rc>}\r3?\262\373G?l>I?\003eZ?a\355\333==\016E>\203\301\024>\r\tj?\213jc?|Dm?`\024r>\006dl>#k\">\']j>\371A8?\303Z\013?\036\374?>\255\233h=:\342\271=\205\260M?\305\256+?9\371\211>-\362\022?\033\021f?\257j)?\342vq?\\Ho>\213\202\022?\254\2568?\255C\313=\t\216\022?R\315\340=\235\262\206>\327\177\177?\346\340\000>es\027?\377\323A?\235\204\215>*\"\340>/&v?)n\247>\020\036\225>O\202j?\216 P?\370\0035;\362\205/?\330\321S>\356`\034?\315/(?6.r?\005\rh?\307\343~>P\224Y?5\232\355>\355\007\302=\325\346V?HZg>A\372\000?Ps\273>\262\266\005?\324\033\312=b\237\205>a\231\247>8\273\025?/k\026?\207\271q?\250\024$>1\273N?\315H\364>\217\270\'?\3644\217<\356\215\t?!g\225>A6(?\263\2010?\263\361\233=\303;6?\0143(?d<\313>S33?\020\217$?\000eq?\255\005\255>w\367\233>\371\331\003?\"+\317>\026w\273>=\262\261>CRi?\2300\201>\210{S?\252w^?o\307\007?\236V\322=D1#?\362/\332<\365\325\366>\373\024\000?@b\357>Y\035B?\333^%?\265\323\024?\357\371!>\331\304;?\312\000\321==oi?\263\351U?\371|K?\324\013J?r\336\345;1\330\341=b\205\243>\244\217b?\317\202d?\034\266\020?\"\020\037?$P\005?\265\371\351>\225b\247>\216T-?\003\261i?\001\223\211>\302\016\370>\006jk>\027%\311>K\225O?\251\177\004?FsI?=o\002?\315\225O>6\346\n?\275A\354=&\306a?\251\013z?EQQ?@\363E?\320\335@?\253\310A?\200z\327>P,I?4\023W>\213\367s?x3#?\376\035C?v\345\236>H\027\r?\201\345\367>\240lp<\233\206\037?\312\210K?\360\022}?\326G)?\024?%?b\250\222>\233\274\277=l(\032?\177\3506?\032\203\032?\335qc?\334\260t?\225\245~?\035?X?\311\267E?\375\'\005?\267\327g?x\336_?w\275*=\204\226\001?\204\224<>\200<\344=8Q,?$\353\327>\036\2322?\034\260E?\265<t=\222\270\226=\327\316\037?.ZQ?\212~{>\376\032B=\013[@?\224\357\014<h\010\016?\037\005\025?\325\223S>\353@\307>y\271\202>y\273\343>\213\201\232>\214\313&>\235~\003?\327\271e?1\035\275>\244`\t?\272H_?4\341}>\233\005 >\345H\333>!\322n?Z4\000?:2>?3\345\003?\371\216M?y\267\331>b\233L?\004\326V?@x\033>7*(?8np?zJ\213<Y\335\314>e\213b?\340\321\334=!]\275=3\227T?q^\262=\021\0024?2\251\263>\272\030\007?\325*\271=e\n>?\213e\345>T\\<>\320\273%?`\002#?Q\260.?j\325!?V\207\016?\343\352@?\201\341\014?#%|?cG\354<W\326>?\265\013-?\341\274\354=&\027=?\203\223\342>\304\214\342=\325Zl?\214O\231>\355\025\023?5x_>\264~\221>\324\0040=\237:;?4\204s?r\232l?\267\n>>;B\340>\354\2064?,\344:?~IW?\246\370\264>d\3454?5\344\n?(G\242>\365\222i?L\205u?Lr`?F\276\306>\225]\237>\002Vq?\336\026\214>U\325\235=\r\026\023<\024\007\213>\351\201\343>\013\300\250>@\010\226>\004\3423?R\006=?<^/?\362R\350>\233\225\247>\377\001.?\227\343q?\215\022?>Q\272\317>\214\325\372>k\032\214>\034\"\r?\231\002D>l\214g?\200pW>\371\223\323>\312\004\264>\255\343\334>\314\352\304<\375\017\222>\373XU<I\003\226>\025\377@>\214\342w?\212ek?q&\030?\260%\001?\267\321\210>(\304\326=\004\2637?{\002(?\337D\212>\262T\275>\242\357{?!\325T>\202U\340;AV\326>\021\021\310=\373p0=\"Y\036?8r~?\342\030\025?\244\232\331>\251\014H>NtF>\337\357\342>\256C\007?\263hY?\273\206\353>/\366\205<\030]\375<\304Z\321>\372?(?L\355\334<\234\361\030??,y>\267\\\326;MN\255>\020Xf?\007>#?\225\2540?\377Nh?\226 \231>\035R\244>\021\2705?\216\005Z?t\263\016?:\004\340>\305]\255>t\205\316=P\027m?\214\310\311<\237\326\030?\202\372@?\265\350\001=\312\035C>\214\333d?>\350L?l\320Y?\205\233\030?)o\345>\177\3413?Q\210i?.)\225>\311\351\005=\353m]?g|\240>\317\023<?\200\230\302>\323A\313>\251c!?9\030~?\352\037(=\222\251\020>\225\363!>u5?>]^Z?\303\022c=t\\\030?\222.\250>\020mA?>\247\004?\307\235\177?\376\023B>%Y\276>\373\016K>\216\343\320>\311\"\030>\006\023\232>\020\306\270>\177\'\266>\020\3407?\344\016-?\nle>\344i\325=1B4?\362\345\007?\267\242{?\234dH>\275\017t?\240\010\212>\204\032%?&Z ?\233\023#?\n*\330=\221\244\234>+R\335>\333\033/?\325\336Z?M\311*?,\2551?\357\314\n?\2750!=\177\372e?n&k?\323\3421?\221\273&?U\003v?\177:\213=\224\272\013>\311W\217=\334\367*?\3670\215=\344J=?[\336W?1N\017?g\223\334>q\350\266>\264\350\233>KZ\270>1t;?\263\022J=\373\2170?n\3631>\035\356S?\322\225\023?I\000a?\301\357F?\251\243\034?B\030\276>\316\007n>\017my?\025\243\036?\376\362h?K\272\355>\262\277\025?K\036s?0\373\365>\022q\321>j\205K>\027[B?\037\325>?\331\253\005?\314B\343>vf=?\351\003\017?\265\312\013?\216\ny?p\260\242<j?\210>\327\3016?\257\010\315=\033\016m?\240\223\355>+\376\355=\307+\270>o\234G>\324\027\205;\"\016r?\275\214\261>\325jX>N\261a?D~p?\314\215==SM4?\244\326\004>\0008{>:9!?xJ\021?\023d\367>\2370<?\273U\250>\234\325C?\275\016??\262\204h?2\323S?\331\321v?\\\313\003?\355\243O>\335\"\327>\002\223\376>\210\204\306=\253\216\357=\032z\274>_\257H?\204W\330>h\243\230=@\000F?\005v\030?k\032z>\023DQ?\223~T?\005\3063?\240\r\272>@S\300={f1?\205\324\260>\370\377\231=6j3?A\375u?\236\310$?$\336G?\314u\004?T\035\237>zE\016>\"\340\320<s\351\000?B#T>^\317\\?\026V1>%C\005=\026T#?\301\344\251>PJV?Xf9?\212\243n>\214\222N>K\r\262>\357\\\031?\305\014\206=R\261\244>o\213\211=\026\346\005?\351\377!?\342\002\t?\214\202Y?!I\213>\250P\001?j\247\260=\326\204N?\"\001}?F\032z?\337t\337>.zf=>c\324>N\360\224>\343M\323=Q\277\022?\244k\332>]D\353>\277\321E=\356\033\022>\236\353a?\215\354\017?\016\314\022?\010\361\363=sX\035?\346\203Y?\346\242\226>\"\2730>\244\031 >\257\217|?G[<?\323\2718?g\334\033>B\365\016?%\206q>v\363\256=\225\367\234>\017\371\000?d6Y>\376s ?\302\033\352>geg?\222,\267>\023\344\232=.Pk>\356:i?\224\007<?v\241\311<\354\361A>5{\177?\004\251\373>/o\006?\205v\347>\254rc?\310\205\325>=Y\324>\353\354n?\261\376T?\221\357<?u\n/?\247)<?f\021)?\000\017\023? \003X?\312\277\360=\343\247l?\'X\254>3\035\377>\372\260(?_\350=?\215\266!?itD?g\325\356>r}c?\333\031\017?!{~?\0019\n?$\006%?\264\225\006>\361\347\311>\1774\365>\313\000O=\323\200\n?\223\332\'>\323=\376>\263L\336>\035\005\025?\273\021:>\031m~?\262o\320=T\036_>\027\r\021?\346\220`?\225\025.?\253\262\027?\037l2?\237\277\377>\3676-?Sb\371>\264\230X>\217\202,?_\341\334>\204\'X?\252\371\033?\210Y\010>\277\n\020?h\314\266>\n11?\353<h?6\242U?\376`o?\204c@?\373\277\210>\'\351\311>\366\252\034?\214K\035?\230y\354>U\225\013?\177\240r?\"\300\023>\243I\374>\202\234\375>L\212\211=\200s|?\324\310\177?6\300\r?%L\252>\225\2615>+\276\303>\230\247\322>z\204\007?D\026\t?\271\254X>\313\374f?c\215\374>8A\020?\320\324\031?LU\361>_\301#?\2277>>v\354b?V\275\033?\242\273\030?$\266\313=+s\004?5\277 ?\337K}=\262\326s?\032d)?\3253\027?\345M\312>\264\0248?d\261\322>\320\222\246>z\316\277>\022tt?\305E\025>/\0148?`\240\354>JV*>\214\206\217>\312Jf>\036\267\317=V\3474?\010K\033?Y*\006=\366i\316>f#B?t0\'?\325\'\271>\340\223\363=\017q\373>\315\r\014?H\223M=\317x\224>\203\301{?\233\0274>\235\r\336=\211\237i?\037\203\033>\212\021\354>\207\207\363=\326\300\326>Q\203<>}\3104?\325\253e>\306\254\325>\312o\036=v(\232>\325\342h?u\036J>\006\013m?\303\367^?7qI?\242\203(?\230\344\377>f]\207=\006\206\023?\212\027\014?n\325a?5w\300>1\244,?5v\036?g@\314>Cqi?\246i\307>fh\352=\322k\367>\367\360S?\362\010\221>\353\'\336>\315?\264>\240\027\213>\'Z\231>\376\260`>\004/\251>\026\037H=\251\207>>\216\243v?\217\017\325;\335\256\306>\350\375S?k\340\375>\n\231x?>[\221>\273\256\355=\257]\016?\304\324\344>E\312\273>@v6?\254\277\237=\037\356\357>3\326\241=oD\232>\3079-?\312@\346>\020\253v?p\322#=\'\256\r?\230\020\\?\222\306+?P\223s?\213B\252>L\033\'?b\367\216=\363\340x>ee#?z\340\321>=\213J>\002p\260=\363\214R?\005\301`?\202\263\034>(\2169?{\0166?x\031\352=\016/\276<D\177o?\034I8?\200\323\004?\272$\353>\314\326K?#68?\267\027I?\241+\243>}1\365>I.!?\346\301\362=\227\313#?^J ?@\376(?\016w\204=\014\267\315>6\032\\?\262y\352>\214\256\034?\254\311\">`\225U>\027\373\322=c36? \327\377=`l\n?-\371\205>\310\240n?|\2716?\3716\307>E\021\202=b3H?\310\242f? B\020>\037\350\036?-`\031?\n\306I?\366\354\341>\020+4=\236m3?\326\340\247=\002\217T?I\216\010>[O\323>@V\352>\214V9>!\261T?\017\214p?j\007\255>p\347:?T:p?\353:\320>{|B?\031\024\n?\374:\210>\237hB?\2346i?\020\264\005?\221\342N>>\317\034?\334\357\013>W\255\026?\032\243}?j!\347>\264\324<?!\022\006?T\3375?\352]\037>\231\033\334>64\312>\030\033q?\367\r\010>\337O>?\3642.>^tM?\277|t?\014\263\253>\035(^?\340\204[>BI\r?\326\244!?\246\233\016?\021!\250>\222\025\276> \345\006?\230\241\036?+\001\236>\"fs?\311<l?\335B\235=\021\303F?\253sz?\002\307\313>\322\343`?\231\206*?\272\030\\?\202\304\257>\3470(?\317\367w?r.\007?\022\316\240>\321\275\371>\276\256<?\203\020\023?\035C\027?W)\221>\332<M?H{6?\375L\275>w\251 ?R\343\352>\360\217\215>\334,\302=\027\371\374>\177\343G?\340\342\000?\230\373\371>\026\214\r?8;\n?\346Bm?\243\265\034?F\303\007>E\350\014?\\\002L?9\374\006>\302\264;>F;\313=\246&b?z\3570?\363\306%>\3166\002?-\340t?\no\212>Y\372\177?\244\331\036?\225\376d?\342-K?\240\022,?\232\002o?\030\n7=[Y\345>\026&\222=\026\377y?^\235n>U\321\021?9\251\254=g9\215>\306x\211>\224\220\313>\027\232R?T\331\300>\240t\310>\332\036x?p\2176<\267\340\035?z\370E?2xg?\223\227d>\217\0067?\327`<?\245b\001?\300\215p?:{\027?\324\303\333>U\255B?^4\352>\2011\"=\350\365@=oy\322>P\230\005>?\300F?F\263\245=;\'X?h\253K?x\262\340>\366%l?\\@\020?\2159\312>\222\255g?\265\355V?pZ\000?\003\317\006?\235ii?@2:?\210o:?\222\251Q>\021\"}>\246\n\325>\253\355/?\245\2512?\375\234G?\250\356F?\013)\257>\306\"4?\023(\255=\000\220\010?6\2340>\022: >\335\252\367=c\2034>\212F=?F\354O?O\237-?\254C\206>S3@>-\254\010?\374\326\004>\221\360\236>Y\022\026?\373\224\245>\002\355\\?\035\032>=\007.o?\237\331\210>\221OU>\211?P?u~\267>\357O\233>\320\224*=\321\216\022?j\275\355>V%\306>\262\261\005?\256N\005?\013MA>\3361\035>\235K\237=\014]>>\302\247Y?\353\330\236>~\206\'?\022\232C?h+\n?#\227\022?`\305\364>4-\356>?2Q?\351\245q>\256\370a?\315\r\036>\022^)?\245G}?\255l<?\220V\"?eIM?\366\336-?A\344\203=OK\214>\356\025\025?P?u?\240\313\376=\360\276B?|\335\032?\243\274\345>:*5?\02231?^\265J>\346\212\255>V\205i?\343r\244;s\024g?lS}?\351\310H?{:\242>G\360\206>\304G\246>\003\241d?\241\274^>\244\223\220>h*\264=\036\315\364>\177]a??\017B?}#\342>\201\'v?\375\"Z?=\336h>\312\344+?\026\016x>\275\031\010?7o\302;Z+\364>8\307\277>\253.Y?\273a`>\205\331\\>\013\206B<1qG?l\264\305>[\323.?\273|\353>\025tN?\311\324*>A\313\367<\344C_?\2719\002>\264\004+?\321\271.?\'\'\016?n\221d?j\337b?F\232\374>jI\010?p\222}?\337\363u?\362J\037?\226\021|?\017\003\t?\2056\037>/f\">\333gQ?3\026\277>\330bP?\1770\320=\224\232\362>\020\2639>S\360\232>\274\310U?\204M\016?\303\236\273>I\340\006?aPI?\263\321\014?\020\203\252=I\017h>8c\261>\216\342\';\271\223\314=\025\022\030?;$$>\256QJ?^\257q=\372\217\214>\361g9>\014\016I>\3031->\323\024Q>(\235\315<\033\334<>0*>?\222\272\250=.\"\003?\304,\022?>P\326>cZ\252>\032\035\007?\215\347\201>\006+\266=\224~U?\005\237>?\3265;>5\305\220>\251\316\242>\317\315\371>\346\030\320>l\360X?\200\026\007?\\\341<?\177\307T?\365\330\177?;5t?\230\312L?T\213l>{;\200>`\n\256>*N\367=]\333e=\224 `?\321&y>2>\325>\326\022\026=w\236\021?+E/?\037\031\272>\202\374\351>@\205.?J\222??\234\\\021>\321\261<>\276\214<=>\274\016<W[q?\362\260&=\367\033\004>\316\030\301>Y\311\022?d\240p?\021\375u?No0>#\023\375>\302\2646>\327\215\250>Tr\277<\253(+?\337\004p?\246\0223>_Iz?\r\227\373>\023 \320>\354\372\013?\262n\255>4\270\035?o_U?\375~\177?\027\311\233>$L:?\034N\177?\223\345\025?\214{\003?q\316\221>\350\343r?\031]H?.x\202>\304\227N?|\354\030?\024 \273>\252\363\345>\230\346\'?)\343!?)Qk?<\001:?\034\331P?\225\023\372>\000<\320>\033j\034=\236\n\\?{\253\023?\222\017\302>\312\211\000?e\366\003;o\3024?n\034\357>EC\250>\322gN?\315\"j?\246\223\317>\375\314\377>10\032>\212(/?\'\367O?\241\246_?\256\023\332>\300O6?\204\271\027>\313>\321>\357[=?\020\317P>\3460A>V\250\317>\301\r_?Y\361\346>h_\243=T#\350=\241B=>\272\006~?\013\367_?u\371.=\333\0204>C&\010?P\261L?\240t\245<\271\243)?4\307s?\3635^>@\242\336=\002\307\300>\331}\003>\2002E<\236C\200=\2113!?\243\336\277>\362\247w?RD\022?\344H=;\025#H?\235\3112?\217O\000>\246?&?\326M-?E G?\374 \377>\323\223}?\332\032\343<\207\331!?\320\211`?\274\025\000>\333\232)>G\036\302>\266\321\024?V\021$>\367\273{?\343\321L?\277\253\016>\326!\231>Bzt?\257\006\302>R\006\010?>\272Q? .}?j\0362>\022\260F>2\311\326>\354\365Q?/~5=o\204R>>\263K?\007\273f?3t:=\347\237\300=\004\036#?\226)>?\366\324\243>\373W\305>V\246T?\014X\032?b{\377>\342\226\016?\021/\023?\273\350\344>\0062*>\366\333p?)l<?\307\303\266>i\250_>\002ki?tka>\342\037\254>)\350m?\'\313`? Zc?8a\037?\332o\357>Z\004x?ty%?X\341k?\320\325\022?\225\205H>\227/G?\325\037\253=\035\263\020>\254\301_?~\013v>\206\217\004?\004\030\324>\237\024\013?\266A\214>a\327}?,\276a?P\226;?\2641f?7\251\026?\t\"\320>\267K\330=\233\177G?i%D?\221l\027??\213A=\335\037$?\316O8?<gt?\305\376|?\326\242\217>\211\222H?\265,u?S\230\214>\264\3779>\367\340&?\234MW?\021)d>\336\377\331>\252t\037?S\317,?&^X?q\201(?\'D\224>}\202\014?\335NP?\367iu=L\034d?\372W\347>\347-\327=\241\351~>\001V\177?\0359\212>\007\361\225>>\003j=1\\z?\024j\370>\260\247\211>;\253\323>\031\2166?)7(?\324\013~?\377\344\311=\316D\364>`\237\275>\276d\r?6QA?k\340\026?\310\3622?\030>\317>\035\223i?\226\337\241>\334\331W?\237,|>\352\376\031>\030\004??>\3406?\005\376l?%kL?uU\331>\277V\257=q\007\224>\261\345K?\343\032\035>\312\302\263>\344l}?\3648F?\227\210f>\204Z&>:\215\343>\351\226\323>\315t!?\304\364B>8\324)?\236\335\236>\023\220\316>\177\032;?\n\333\010?m\3565?T[.?{\217\331>\020\370*?\\\031\037?I<)?\2450\361>\323\361+?y\254\032?2Y(>c\243\237>\3259\244=\340\375+?W?o?2R\205>\223\0323?P0\260=\257\2305?\202\2637?\203\032v?\036\334C?\363z\024?\3228(?@\377\223;;\034\023=\255\023,?\343t\003?\351iH?*\360z?I W?\315W[?\026\277<?\'\274\355>\276\013\304=\306\236\362>\225l\326>o<\022>B3\326=\353R\257=\226\233H?L\202/=y\242\303>\371\346T?^i\003>\363\321L?\332\321\006?\301\227a?\206\327 ?L<\025?2\346\274>\010D\247>\3373;=\347f\363>k \334>\366\216W>\345\323\231>\014x\013?8\352\255>\377\262t?ei>?\235\265,=\344\"\205>K\003\037?z\322\002?\326A\007?\000\332z>r\245n?\277\304\341>\277\010\324>\227U3?{\367\033?~X@?\027\231\327=\307^\013?\023@&>\221\006{?/\213\277>\256\0040?\320\262\371>\005\346a<^\310{?\331\254A?\337\242\234=\212\'\001?A\261\247>\212\373\301>\nW\030?\204\344\001?\223}N>\006(&;\304\271}?\343\263 ?\225X\257=\"O`?PL;?\212At>\3249\361>Ph\215>?sm?]\003`=\032\325`?\352\r\326>x\3729?)\002\374==\016\006?T\330t?8\352\374>\260\245P?^\322`?s)\003?\205\360\257<a.\233>\305/A>\255\177T?X\226\245>\265a\302>{hm?;i\242>\r\030\241=\177w;?\0311b?\364C\235>\220\326v>\2775\332=nH<>7`\337>\333\346\003?q\321\357>\r\024\025?=\325|?\275\020V?\004\371\014?f\366Z?l\3603?\010K\006>\274E\001?\203\302o?\000OP>6\"\n?\361\233t?<2\010?\351\'\n?\276\355\007>\254\372\037?\322\316??\225\n\244>\203\326\210=\344\252\r?\234\331\033?\270\236\245>\300\344w?m\025*?\365\"\344>\247\306=?.\364{>\251\311\217>\265\275\212=\r76?\214\363n>\206\317s>\324\244\t>~&T?\264\335w?\013\300N?\036}u>\\\273\341=\027\005z>\237\276\032?~\340\020=\377\207W?Cs;>\241\025\026>\243\001\226=J3\315;\200\203 ?:Be?^\326*>H\327\023?2\342\260<\325\020<>\006\330\244=\257g4?\033\001\375=\251\2668?\213\3749?\302\234\033?\016\251i?\323G<?\323\255\026?wA\"?\372\310 <\322\024G?]\316y?\263@B?\017\0134?>\343\344>B\356\267=\342^\356=\310\227h?{\255\334>sk\216>S`??\316E\010?\233\343_>\364\027\364=\334\211V?\206\355_?q\024\226<\227X\216=\004\246g?\203\237U?\222\312\037>\353m\336>8,\366=\354\273\374>\211\332i?w\264P?\000\256\370=p\"\370=\022\226\010?\341\376]>H\021\201>_\301\352=\353H\n?\243\353\036?\000X/?\301\245\270>sO\"?TT\300=\377\203c?\321#\240=Y\313\230>\347\3178?\342\007H?E\254\256>\222S\036?\312\3069?\343BH?v\201\342>\235\013\277>\014\275T>V\277*?z\307\016?\362\033d?\252.\013?:cV>S\216<?\024\351U?b\373-?\026\264c?\230\343~?j\206w?\350#\343<\332\225\006?q\231<?m\252;?,`\373>\333\257\t>\0211,?\021\036\003?\036/\213=\310\023\032>\315\002\007?e\375y>\263\007\000?d\2777?\323\261\003>=\332\027?5QI<\027Ap?\027\350@?\314|d?\031\256\335>x\235x>\350\345\037?\277\351d?\r}^?\223\274\034?\305\351\017?[\023\000?\347\361\270>\326\t\307>\226\322y>\347\335\221>D\332\365<?\021\261>:\367:>\256E\277>\377\360\024=X\305\306>\212l4?\023\267m>7W\010?{\016\020?\020\022n>\241}M?\315:C?\034:\304>q\327\257>p\013a?-\200\'>+\255\360>z\246\026?`\t\342>z\211\350>\311\366\233>H7\013=\247\214\'>\346\250!>\334yy>RJb?\265$\310>\364\340\034>l\003\213>\327\t\022?\233\016{?\260\026\252>\305]\202>\202O\'>\303;=?J\002r?\364B\377>\351\262X>\302E>?wCy?\314\212\215>\253\272\242>\254\237\356>cXy>\026\356\313>\376\236\035?\203\272(?\226^h?D\2117>\274\306F?\3169\026?\363\215\205>\264>[?\326QN?\315\213\026?\345\256.=\305N%?\357\006\376>\"\236\312>\377\020\204=\001L!?|\227k?$^\242>\225\317\"?`\356q?}\211/?\244\020\026?qBk>\267\223\370>f\357\243>U\010\346=\244\320\001>\323\213\375>\336\330\\?\305J#?L\241\343>O8k?oF\324>\0243>??i\240>\240\206l?-\3758?\254;\204=\0106\226>\326:[?\346<&?\333N\260<q\010z?\216\347N?\023\301[?\363@\016>$\277\033?\031\205\330>:\250,=\177\265\357>\377\201S?\250\337!?\005R\001?\272\216u?\301\267\336>/x\233>3v\n?\352{\273<\304\244\n?\217\316Q?\334\371^?T|$?^\260\217>\301@\272>\337\2055?7\247\n?\246\363h?\253lM<\303\036\234=\214\307[?F\'p?\372\021J?\225\317\023?4V\223=\231H\267=\373\002W?\230{s?\222z@?\002\270\333>\030\351n?S\305\275=oi\007>mU\361>\302\370\037?\224\370y<\317\t\303>_\317\370>\r\247\354>\377\210\n?\014\3510=\272\242\227>\275\363\027?d\305\236>\334\327V?\250\273\017?\347Q_>\277\177\321>\243\372w?>\224J?\"\236*?\326\227\254>\331L\303>\367\356,?\310\355f<\324\267w<VM\035?\037\235\226>\006\243 ?\320\204%?$\274\300>Z\033I?\352\321\236>\305a<?\021/\321=\307\004n?\255\025\336=\334\226\356>\017y\231<\243Ii?\232\023Z?\034\373\003?hP\r?\032\"\001>\336=o?m\020\347>\317T\032?>#/>\350\023\352=e\347\217>jW\246>}\323\231<\261\rn?\311\342\007?\263)\027?\262\221~=*\302\322>}\217\\?\200\005A>\204\276G>\322\252\023?\323\3619?\221\016\013=B\rr?\203\230x>\321\024\271>\214Ol?j\321@?;C1?\303\347\036=\371\000 ?A\334(>\237l\206>Y\214\034?\250\232b?M\370\026>\341ET?\244\216\202;\020j\371>\330\303\377>L\340\243>\252\006\207>y\371y?\002\362\271>\344\375E?a\314P?\320\310\271>\244\2120?\373\005F?]Z\351>\222Q\315<v\'D?\343\221q?\371h\363>\332Y}<aUf?\317\017K?\253v)?LMw?\005y~?5G\326>\241c,?\032q\373>5\312R?\302\021p?xBa=w\\j?R\370:>_=\"?\034\002\347>\03333?\3042;?\"\0211<\376\255{?\005\005A?\361y6=D\021\005<\214o\303>\244|[?(\2770?\234\2177?M\244\212>4\255\'?5\021\357>\265\212\227>\243\001\322>%n0?\006\016\213=L\345\214=}O\010=.~K>^X\372>|\365\212>\2216\010?\371\037\310=\325\320Z?Q\237\370>\325\361z?\264\204P?\316pr?\24229?a05<J&\363>\273y&=\026@\346>x\251\215>\243F@?\032\312\034?_k*?\314\205Q?\273-\344>\020\177\314<fo\237>m\326\315>v^0?R\017\302>\223\013\372=FS.?\002T:?\3565\273>_\257\t?\025\200&?\220zi>\356\216\324>\236\033\023?^\036>?D\206\\?O\030\220>\356\216\361>\222\021S?g\275l?\021s\335>\233Kd?Lt\252>\013\372j>\376F\005=\267G\312=\274\301L?|\264F?\326xt?YNG>\2541\231>\247k\251>hR\226<\\\324\023?\001\311^?5\326\336>\353pH?\272&j>\026\023\021?\234\232\014>\240\301n>H\232H?\216\254`?\260P\251<\277\202\035>\337U\020?\036\356\204>\204$\023?CNd?NPa?\324\'\\?\256\307t?\252U\326>J\243.?\332\345\367>\376\233\303>lfW>\312\032\026?Vbw?\255d\035?\031\013\027?h\342\316>1\354l?\344\262!?\\\033\035?\355\366\242<\233\214`?\007\0172?p\n\016?\353\003\332>\220jm?\373w^?\241*\033?\001\335\260>\r\213\010?\033\214\034?\365s\262>\312\354L?\321[\312>\363\240\200>\004\201\227>E\310H>\246\210??r\260\316>U\353\211=\t\325N?\204\360L>i\260\372>N\2152?\021B@>u\266\264=h\304{?\325+J=\227u=?\350\342f?0\275\000?\345\234~?\230\005\t?\335\372\'?\277\247F?\350gD>\275\255[?g\206J?\272\216\r?Df\017?\376\370\037?\254\374\227>l\2445?\247>G??B\352>\226L\205>\334j|?RV\336>\224=\247;\277\312\301>&\000&?\332\372\206>o\235\177=z\376\324<\271\341\"?\305\257\005?[WQ>\275\003\000=C#~>\222Uu?\010\327\025?\267Ro>`\251\364>r\273\336=i\003\335>\275\274f?\223\356\321>H\223\315>\252\360\006?(\317w?ZS\346>\022\354\033=p\316\220>p Z?~5??\034i\271>\227j4?.\346\301>\013\007P>\2741K>f7\241>\004\000\021?B8j?\320\267\036>ReO?M\251j?u\000e?\344\031^?`\010/?\237?\000?\002\261a?\004\354%?\2473\251>p\234A?\207qf?>\372\200>9Q\365>i\035\376>^5X=C|s?\022\220f?\241;\030?\027\271\220>Bw|>\222\271\262=b\2375>\250\263\364>\020\233\256=E\221\314=F\r\242>\343tE?\220\376\230;\177}7?\377\2432>\365\272C?{\256\251=\223us>)\215+?\250bI?U\212\241=\231\025&>&?B?\3661\301>\035s\351>\020\256J?hr\005?\323\360D=*\033[?]\2211?\354l3?(\2655?\031\322W?<\021\251>BL\007?\007\2301?\213\214@?B\323\003>\350uD>!\3452?)D[?L\024\217>\340\"\303>%\256\005>NY\006?\350v>?e\350m?\253\262z?\340\367\272<!F\220>2\232\270>cE\257>\215^b?77;?\345@c?\334\0068?qYM>\207\212\245>\014\230\000?[o\362>\316\240O?r\374d?\272\303j?\306\265\343>\202\311\305=P\024\003?\257\220:>\236\014\001?d:g?\036\220\264>eA\221>\035.\023?\024\245m?\316\370n=\000\333\265>\273k\275>\263\200r>_\023|?\321La?\017\341=?\244{\n?U|7?\304\320\021?`\242\037?g\354\024?\206\377X?\003e,?jBd?\347\224\013>\257\033\022?\311n\314>\036Y??`{\306>g\213f>\304\260\016?\332\252F=\212\024\220>\247\351\263>g\362\324>h\350\325>\000\317\257>i\336\232=\223\232\237>,\005\004>\271Q]?\230\211\207>Zk5=KoW=\317t_?D\233\233>\266\201^?dV\\>\254\356\315>\0130\276>\225tw?\252\036\376>\024g\307>(\273\357=\335\332:>\262\374k>\352\347x?\337\354\321>\350\037b>@M\">\242D\257>g\036\224>\376\036|?\'\335\204>)\301b?\033\352\020?\251\330\357>\360\025\316>i\303/?x\035\334>\256\t\030>\214?\037?\310\372\332;\260X\177?b\372\227=\233[\020?\317`A?\317Xy?2\234\031?\017\323u?\020\331i?\253?\034?\013k\357=e\031\265=S{W?)a\006?\316\303L?\031\201B?YwV?\262\325\r?\210\236\307>T>H?>\216h?\031\274\276=\t\310\364>\202>\261<\254&$?\251\305\261>\207\204\203=\344A2=tOf?x\360-?\021\'\302>\337D*?\274c\313>z\027h?LJ\035?\\\222\021>\035]\030>kr\225>\362\237\016?\251\241h>\021X\207>\241\357}>\277\270\327>\367\220#?\334\217+?Z\305I>\223\001W?.0}?\027\2337?7W*>KVF?\322\005`>\271\007\002?8\265\'?\203b\256>\215\326\\?\373\206\242<V,\272>\037/A?9\377}?i\214\020?\324<M?J\211+?;\3721?\354\316f?\375\033\020?\004\rM?\235?\333<l\214\202>s\200\202=jyd?\237\356\037?k_\224<\332\321T>Ex\202>\317\316|?\245YW?4\222\006?Q\302$=|\216#;){g?-p\230>\260-\273>\230\301/?\374\230=?\306\337\210>\254L0?\242\371\036?\245\335\321>\237\266#?S\3401?\306\025\017>\314M\200>\351\303\342>\036\0234?E\t|?Q\227\213>\306XQ?\214wi?\245\372\252>\216@\357>\"]X?\005\273\226=\3679\'?\243}u>\242\3055>\263\272m?\001j\317>Uw\357>UF\'>\026\377\204>\000\273m?v\271\337>+\320\242>M\016*>\331\027<?\344\324\324=\312w\022?\366\201\017?\377\224\220=?\267*?\205\304f?\261\021\034>.\245\006>\233\304\243=[XD?\216\023\177?\245QI?\0103j?\3114\222>r\234\005=\253B\266>\017\340\234>TUx>\256T\347>N\314 ?\324\013\'?}\032F?\225:\203>u<\216>\006y\260=\300\265\323<\3654R?\370nH?\342\273o>q6\006>\344\226\013?\204\363N?x\'6?\226\2362?\322T\272=\244M_?\305\347\340>\036BI?Zp\267>\nH\'?\331\202\333>\362Fa?\327\233\341>L\333\346>\006\243M?y\372\003>\241\233\214>\324\024\352>B\361$?\261\252\216=\0301X?\036x6?\364\3027?\027\2304>\276\002\323>\267t\251>\363m\223>u\2260?bG\352>\233\277#?\376\330\013?\272\346,?\rVV?4K(?\037\222\037?\250U\005?\030\326!>\320\316K?\210\244]?R\324o>\276\313\226> ;\023?\261y\020?+\n\030?\3749\022?A\300G?hf\001?\030\353N?\177\305h?\327=a?\2144|?\013\344\361>\311\013C>eK`?&\376U=\214\332>??eE?=\250.?f\323\346=q\322^?\001k\037?\007\310A?\226\343[<Y\301X?\253\'\006?\361cK=\243\220\031?y:\355>\203:\326>\210\0028?\366;[?3\0038>\225\254d?X\200\337>D|=?_\347G?#ko>\027\237u?#\342p?\261\375\270>\201\310\312>H\351\256>\346/8?u\217\013?XG\027?k\373\020?!\253\234>\376\264\250>\024\201\265>\010\177\373=/pG?Z1T?k/]?P2&?\')N?\376\326H=\240\337\235>~\357\333>.\316F?\247\006t?0\224\272>\256\013V?\313\323\274>/u\342>VB\277>E\213\326>\004\223\332>\2007\350>\257\323=?+W\356>pw\363>\274\201}?\256\231\245=\374\031^>\317\365\030?\314\220L?\335\\\014?dd\003>tD\344=!\335\325>\022\261\003?\357\n??\2078\276>\317:p?\227R\206=\001\271(?\020\367k?|\207{>\017\255_?\331\372b?\232\230e?\002%\352=Dz\233>\347\277\003?|\375&>\001\246\225>\204\245*?rh\025?\370\026\027>\222\364R=|;Y?\376\236\255>\345\263\221>\357DV?\222;7?\234g.<\310\276\374>U>o<\202\256b?\216\200\267>\276\023E?\350\320\300>\227\3236>\277\230\017?j\373c?\371=\000?\005\023\033>\177\327\014?\220/\337=?\2565>\321L\305>\350\244\226<f\213\231=\2001\353>\037$\205>\003\363W?\274\355\032?\375\341\236>\025m\305>\210\n\031?\0374:?(\233M?C\362z>\037A\022?\353|Z>\371{\006?\243EF?\251c\375>&\2211>\342\025\327><\021\010?\313\310\226>\354vn?\215\026O?\250\275\037=\007\n\340>\021]\014?\305X\303=G\230:?C{9?BTJ?\013S\250>\260\363*;k\250\264>:\035{>\324\025\265>\022\035s?J\253\t? \372,?&hK?\373.\005>\001{\261<\037\300*>.\300\022?*U<?Z3^?\252\360\273>\272QY?\330\253A?\370\200S?H\252d?h\3318>p,f?\232\304U?\325\273j=\243\374.?\275\255\037?\342\023\331>l\377D?\224\005#?\265\006z?{\300\t>\024v\247>\026\354\\>S\326\231>\344~=>\224\203\327>g\001\212>:_q?k5\213>`\325\354>\325\244??\322\373]?\006\260\325>m^\006?G/(?\'b&?F\337\'?\365\273W?Q7(=<\232\271>\000\030p>\2306S?IRP?\255\rd>\036\376\257<\352x\367>:\343\253>\276\\\221>\375\257\265>P\017\013?;M\014?g\244\033?>\004\224;\205\204=?\373v%?\035\337\223=\263Uw>\363\202@?\373\312\345=\231\216\251>\276\233F>\362\3039?8z\211>\375;\227>\033Kq?\304\034\277>R\323\003?\331\206\303>\206\203)?\360E>>\330Ja?T\030\245>\251\271\242=\235#\205>\335\336\036?\026\230\370>>\253Z?\362\3357>\037A\207=\313\207\354>\206OA?\217\036\231=!a&?`\212\354=a\2046?\220\322\270>\357\247\201>\344\256N?\356\0204?\202x\000>\257G\267>\356G\266<\221\306h<u\205>=O\214\241>\'\273\311<\224\204\003>\204\373{?\324je?o\320n?\\h&=\201\224*?}v\352>\200\337Z?\276\030[?G\323\367>K-\344>\316O\325<\331\274\233>`\341\302>\235rs?\354\241\263>\240\022;?\232\270&>\'\007X?\352\341?>\376>\277<\2552\271>\356\331K?\177\370y?\203\250\331=\253\246\351>\376\244\252=\350l\212>\236\377v?\242\255U?\255\376I?\254\251I?\357r\'?\005\204\311>\247\273\007?\231\235]?:!\026?\026\304o?\177bG?\307\025`?\000\024,?\000+\262>\230#\234>\235\272[>\000\002\237>\350\274\317>\010\304\256>\233\213Y?\222\000c?\021\227\262>\2679I?Z\323/??p(?\3441\355>\334.\273>$\330o>\201\247\222>\031+\231>!BF?)@\t?\217\t\331>T\246\327>\321PT?\263^C>\341\300w?\276Y\334>\303~\357>\212\217{?\350H\013?\241\301\264>\375\236~?F\006\006?\354\354.>4\231f?\021\256\232>\'$F>e\264\267>\225\000\350=\326ZC=\264\331L?g\313\376>\252\014N?Q\263f?\272\361$?3^\320=h\002\030?#j-?^\323W?\346\323U>J\354\377>\226b{?\365\370\311=\246m>?w\322\324>\354\330A?\355\352.?\370\204\354<\025?$?\331\217\204>cU\037?R \013?`vg>Yd\210=\037\306\263>6\032\367>2\3167?\267b\034>\335\336 ?:J<?F\270%?\372u2?\260\323\'?\024\337[>\377A\340>\016\022\177?ixi?uX\337>i#\340=\032\371{?\300t[?\n\223\023?2\354\014?\003\224$>\317\014.?B\2361?\335#\335>\337J\232<\333Te?|\3108>\214\322\025?\323E>?\363\030\365=\225\331\235>\221%d?s\232%>\261=o>\352s\317=\314\246+?]Q\t<\307\\[?\356t\377>\212S\255=\274\313o?O\301z?\327{B?U\022\354>\246!\217>[\006\243>\326;\026?\250\377O?Q:\247>S\377\314>O\363\022=\353\004\366>\230\274\207>\207G\272>\247\277\222>\n3e=\220v\033?\375\037\351>\262\302Z?\003\032f?\270Gx?+\275\201>S\332L?M^\243>\3365T?^\261]?)Z\376>\225\315(?\312\t!?AAZ>N\246\024?K{`?\341y\235=\247m\333>\003\247;?X\261\343=\244fA?>3I?!\211\226>\311\277\321>\002\246\355>\235{k?z\251Y?\307\353w?|M\366>?}\354=\371\226c? \213u?\261\326J?\371\013\250>=0\253>p\313>?\0377\372>F\255\337>\315Lh?\"/_?\021\364v?\300\347\t>\235\212\037?\241\203\002?\024h\037?g\356{?Y\016y=bO\022?\323d\250>2\256+?N-\177?\327\305\221=\362\2720?\220X6=\304\017??\376\321A?\0260\271>\027\372!?p+\001>\330\374U?\004\2321?=C\344>\351I\321>\367W$>\032\'\002?\203bo?w\025\206=\322\246Z?\033\001\241=\334\261\352>\304ZM>drF?\360\002\000?*\250%?7\357\007?\306[\344>n\330\363=\210\233\005>\206\316k?\030\227\003?\373\230\017>\010\004i?\313\343]?j}\'?\305\355,?\251M\033>\276\027\216>\017\215\257<Ufr?\276@^?\242\322z?\260ID?\354\332A?\315\355f?\t\320\024?e\333o?\321m-?$m\"?T\246w?\246\331{?\261r$?\364\231s>\'\235g?\200\303o?n|$:O\240/?\271\250\233>@w.?=Zh?e\346b?{\013j?Dsc?\317`\342>\307sd>1,8?\317qs?Y6Y?\010u!?\361\017F<\302\260\016>u\330\024?\225\340\345<\364w$>\313-b??\013\302>\333-z?)\0274?\230z\347>\340\232n?W\336o>\256gL?(;~?wo}?\273&/?MI\234=\350\n\333>\022q\322>_\314t?_\247\036?\225$T?\'!\003?}4I?:\225^?\302\345\017?\200)h>u\225\277>I\212\016<\313F\353>O\326`?\027\307\262>wD\003?\221\"\033?\n\036^=\032u\214>\"\254}>\261\214Q?E\372\273>\ry:?2y\000?E|\312>2\233\310>^\277f>|\332\264>\304e\007>IcN?\013\346\221>a!0?J\035+>\217}\013?\036u\341>y^7?\374\201\223>\347B\273>\320\\\022?\370)\356=H\260%?\371\337\031>\244-G?\234\344m>o1\237>\035\214\003?\3553\003>C\271>?\351?#?\204\036\355<Z\224\215>\020\257\310=EZ\210>\247]\353>n\000\251>\024\021L?\371e\020?U\221\t?\300+\201>\260\350\262>&w<>](\177=`\313\030?\024\202\232>BD\230=\213^\222>+j\221>\336\325\307=\237B\014>3\247\024?\252\\V?/S2?\372\200\020=(\312u?\263\340\'>\236\343\366>\245\376a?-*z?\324\371`?\204\3218?2\214\230>N\214\036?\242\001\027?\010\007/?A+\002?4\216\355=\267\027W>\256\236r?\231\224\251<z\202X?+\205j>\354\335?>\237\2609?\203\206q?\253o<?\347\226\027?\202h\272<\003\"\030?\301\2669?\347\317\003?\242\001\033>\311\265e>\206\337\034?\377\226$?\254z4?\305\3445>N\003\327>P\3523?gR\350>Q.L?_&\005=J}\243>\345!\r>;\234W?x\357\327<\241\222\233>\356\311x?\325\316~>s\350\014?\364\341\"?U\037c?7\274\346>\213\023\023?n`\360>5\2511?@\270\033?\265|~?\374\272\001?\352\334\\?\0105R>\241\222\334=\177]N>\223\261\263>dC\223>\030\030\362=\\a\005?\200\366\036?\265Y\327>{n\033?a]\374>\315j\203=\373A\276=>\314\247>\031n\325>\332\201\n>\247\017\326>k\257\324>\243\361\035>\207\\\030?!);?0:\205>\257\2039?Q\200U>,\361\332>\277\020X?j.\270>e\023d?\303\345[?\322\243~?\022\222j?\024\300\263>\333\240\177?\032A\177>\n\267I?\220i\202=.,R?Q\003\305>Q\312m<\267\223\301>0\272G?\314M@>\342?\013?\205\230_?Aa9?\363#\206>\324!??\021\313\230>\260\353d?\343\342\">\034\242w?~\264(?\200\264(?9\367-?\003\030)?\266j0?:^\307=\271\242{?\365\037F?\362\214\201=\214\375t?\3207\010?Z\253C?W\010`?\210)q?\000&\242>\r-\256>\314\2540>\316\216\016?\251\266\321>\204\275\334>\323\3434?\374c\352>\324m>?\315\300P?\3329\211>\265{\302>\024\236\235=\023\272]?,6.?\270\212\035?\"\n\206=\305\372\347>\266\307 >\264\223\317>\316\261W>;\311\017>\327\022J?\364\263E?\366|\243=st\305=\033\211R?\255:a?\246\333Z?\261\010\261=P\350\035?\307Z\333>\317\247\362=\321\033\341>\240\306#>\321H\021>\227\2664?$\205\205=\227{\221>\010\337\021?\311\270J?\323\345B?\373<p?\227*U?N\253\247>\213\220\025>.&m?\304o\020=\330\337\032?\275\263\007>F\203!?%(e?\374\2758>\307E`?\242\2644?+\210P>BfC?\301\301??\334Y\320>\217\2107?A\323\307>\224>\024?\313\'r?L\344\307=\311\2055>\024\2723=5\264\035?)\002c?\356(\212>\2539o?\355\310\001?9N\371>H\213\207>\327z#?\237m!?/\372\346>\00684?\376\334M=\230\r\265=\005\241\346=x\376\023?\236\254j?\300\364I?\003\007\030?.\030_?I\250\250>\337\207u?L\232\302>3@c?\376mE?\332\261}?\257\007+>\013K\204>\201\177$?\313>\004?\210\362\354>\363\357A?\201n3>;\274b>\255.G?\177\361a?\006Zj>2\300\312>\205\3469?u\212w?\234\337\231>Hrm>\303!>?I\243\220=\244\201\001?\272\024\022>x\031\235>T#S?\320Jm?\351\301\032?j\203\177?\202%:?\220\277\"?\266\353\"?9\363C?\320\037\327=h\232:?\246+\027?\202\355\301>\2213C?e\013\241=\202\250]=\332n\356>\336\037\\?\260x8?\361\312I?\033\235n?\2422\270<\265\345\225<Fq\200>\250>\330>\373\353\'?\326\373O?5\345&<\205\037??0\240\007?\3726C?\022\347g?\314WJ?\364Q\001?\253#\2029\\>m?\317\207\327>\007\257\353>\325\335\035?\243\003\276>W\242>={\310\225>\357\250\036>K\212\260=iW\273=&\234\026>k\217\007>$i3?2\377^>Z\364\022=\230h\354>\303\002&?\221D\203;IZ\036?\027\361=?\357\\@?\324J\221>\000\362#?\032\034\372>\237\030#?I\240\342>\020\014X?\036\250\252>\233\354#?\340\372v?;0v?\221>A>\374wA>g<\002?\255\\Q?\332\230\007?:\334\002>{\230\361>l\247\352=Z\336I?\347j`>\r\020\223>\370\241\341>\341d\277>\233\367t?\220_\033=>Uj?{$\215>\216sU>\273\245\272>O\0172>s.\303>`LG?\254_\023?\225#\277>^\014^?/n\367>\226\341\273>o\347\316=PAq=\243\177/?\226\003\177?V\3218?\241\364\371>\3612\010?\364%\355>`\030\r?)\322\344>.#\262>\006R<?j\315P>\303\266\230>t\225_?\205\322*?\341\237v>\277\226\270=T\334\345>]\316\001?\202\2610=\204\240\t?)p\215>k\261?<\013\025Z?\t\223\013?>\353K?X\010\373>+8Y?\235\345^?\027\002\313=\025\013\\?\240.g?\374@\005?KF\253:k\034}>\321^\330>.\250y?\030p9?\231Y$?3\327\350=\325\352\035>\330\243l>\272E\n?\220d7?\242l\300>\001\230\333=\321\260\006=\353\220\031?S\337O?\355wH?x\351\363>i\177I?\354\010=>\223\313u?\035\331\230>I\367(=.\336\026?\352\311\031>\250\243\024?\351V\357>p\363\226>\377G1?\332t\375>\375a%?\010\036A<<\336T?\350P\246>\006\353\020?uI\256>a/\351>\tA\356>\020\037\002?j[\206=\227\326u?M\325\252>\263r\203=\254\237\315>\217\220n?\331\264,?*\3607?\376\3714?\313{,>6\277a?\330G\033?\321\322p?\266x\270>\273.\214>\260p\225<%\000\001?\251\272H>\252\010\213>\2064<?\031\347\246>B\000b?\266\\\213>\313TR?\256i1>\234A\036?\214\t\030?\366\3225?\277~C?\t\0374;\364\003\021?sc\346>\344,\347>\324\356\311>K~\003?&v3=\321\002\031>\220\225Y=\250\330\n?O\0179=!\305\010?p\035\214>\357e\007>\003*9?\210n\273>^\330\017?\000\372*?\202\007\325>~\255\007?\214k\013;\023x5?\346\213v?@`K?\030\313\361<\241T_>z\263\366>\373\351V?\373g\323>\270\\L?e\352\231>\\z\305<I\221$?\223\315G>\022\372\261=&\002\277>\371\320@?\242\262X>\363\217\032>U\002p?\306\326\352>\247\272\001?I\254]<\301\205v?~d:?Z\313\003?\021\204m>q\314\215>LW\341>\2740\304>\311NJ?\354\037\t=\203tx><\325\220=\344\302\001?\300\253??l\014\221=\336\"H?\265>\310=\277\203.<&\0034?k\241;>,\317-?0)H?\004\214\007?\340\326\350>\3020\371>\371\376.>\200?\277>\345\2177?\212\267\372>=\210%?de\025?\314\373\375> H\351>\274\374v?\227\260n>\216<\010?\226h$<f\210\354>Ap\251>\332\202R?\007\214\227>\326%*>\220~\027?\327sQ?\202g\t?\375w\371>\2464\267>\251@[=\245\372\374>y\203\312>\374\205h>\313y\327>\313\312\266=\217\024!?\036\005r?\277O7?\034\3251?\252\333#>\253s~?\355\317+>\330\377\364>\301\210c?S]\367>\2218#?\231\001E?\323J\232>$\350I?\251Y\370=\341\342\263=\032\265\260>_9p= \003:?\031^\n?d\203\003=\253\221\177>\341\010\017>\221\243\362<\325y\310=k\017\007?\315b\343>Z\001\264>e\345\\?]Q\273>\005\333g?\253\2067?\327d7?T`\304>\321\213\014>-\010\010>\333\347C?\344^\245>e|.?:\'R?\210H =\334\2766?\301\227&?f\253\363=#G\227=H\316\350=\266:\026?1\3423?\363h\026?M)\334>\027\r\252>\362O\374>\343\027(?\247\366k>E\257i>P\363\377=\254Wh?\302qV?\225]\344>D\r\003?%\307\252>\250\0028?)\022\026?y,\010?9<k>J\022:>9\202:?{G\036?*\277\241=\350\006\254=IBq>\320R8?rw5?\365f8?\273Q\263>0\313V?\312\265\201>\324\376\257>&\013\'?\375y\036?\0246\271=o\216;?b2\256=Jf*?\324\341\330<:w\341>u\252\034?>\353H?-\207\257>\223Uy?\021\252t?\207\325\032?du\321>\305\204\350>D\272\014>\005\002\256>_>\266>\335\007!?w\236\031?\255\221:>\2075p?/\230n>!\337\330=`\r->\371\214W?\3236\354>\341\020\273>\245a\306=L#2?\3352>?\327|\'?\273\361Y?\261[q=t\223\235>\335\006\221=|\003\'?R\201\307>\353\3419?lM\036?\004\223\265>t\3710?Z\230\026?\255\340I?\337wc?\202\3453>\\\245L>\023\037\245>gDg?\2658\244;\233\200\005?\227\014O?td\331>\330\277\323=3\326\225>0a\225>BS.?\334!q?\371P\335>\0369{?\242q\177? \t/?:jD?U\004&?0\255~?\031\204\251=\023wn>\302\243\305>\324\315\222>\315\371\214=\202\264\026?_\272\207>d;S?\235\322r?\317\301\331>\213i\031?\\\333p=\001\366h?A\203\313>K&\373>-\3558?48\221>\365\253\273>JsJ?y0Z?A\2169?\002%W>\354gw<\224\035\275<#\023\324>A\253F?\024\370M?\\\2635?\224\266 ?\307D#>\360\330\331=\234\036n>U4\343>\377\332x=/\203/?\263Q\001?\265\330\022>A\356\027?o\275a>\342\331\321=\0100A?\375\303\010? \266\006?\344\315$?\252\272\265>\260q\310<d\240u?\326\253\211;k\303\003?\362\345L?\301\364\n?\2471\306>\330\014\340=\300\214\340>\010\317y?fR0>\300E\003?\264\023\376>\n)\025?\213\350=?\352\222W>~l]?\016a\013?\024~\271>\3567\006>R\316\022>\367\201\357>\177B\324>\003F\203>8i7>|\362\325>i\215\031?(\342_?h\223O?\201\376\207>K2)?$b,?\212\007\277<+\274h?>\376x>\221\032k?\021\371\326><\302R?-B\216>!\007\321>\0211S?9\025y?\363P9?Q\033m?\352\t(?|\231\010>di\273>B\035i?ozs?\354\251\302=\352\372\235>\0259??\277\\I?0\024.?h78>\207\257N?=\310\373>\254\227N?1\\\244=\306\331\002>:\007]?\237))?\301\332\277>\257?\t?\251\214O>\225A\024<\204\013A?\274\340g?\205}\016?\206\360f?\031g\237>~AA>M\204a?\307=\220>\276\330\365=+\356/?\306Vo?\300\260\010?-&3?\221\225;?\026Y\226>\263\221~?5\323\271>\3604C?p\264n?2\034\002=\337)\202>\360\317o?6K\024>\202\304\017?j\225\377>L\0175>\334\273C<s\025#?\262[\246=\352\312f?[\034\250>\233\376|=S9\362>\035\374\245>\326\271W=\203\233\262>N\334x?\235\006\010?\372>\274=\235\240m?\250\t\301>\222tt?d\226 ?\004\306\030?\210\357D>\340\376\256>\226\312\347<\341C!?\214>\326>&<<>r\254O>\346\300Q??W]?\227\303\001?v\274D?\036\277~?\014J\000?\014\331{?\330\331J?\226\365S>\003\223E?\257\334o?\016\326d?\0100\204=\222z\372<\306gY?\322\033i?\355\342\177?Mw\037>\313\017.?\223\t.?\232\212{=\004\306\276>\026\361??\266\021\331>:m\242>\225\tQ?\010\315e?E34>H\\b?\262\030!?lDP?so\230>\324\267\244>\367\272\020?s\215\032>%\213`?\223\245\316=\352\017\321>\331\007\036=\022\235i<y^\373<\376}2?%\357\017?\274\3669?:^\336>\027\215\276>\000o\031<\347\224|=\364l\336>G\004\"?\252\215\241>\235\365\034?02\371=Q\010\r>\317/\t?\254\346\006>\035\363}?\274$\276>\364\027\257>\'t<?\006\005\002?\362\302)?\232f\340>\231|\337=jWO=\323\212s>\3365O?\310G??\323K\026>\220\3126?\363\261\307>\240\213I?\2766*?\005\246\274>]\025Z?\267Ku?\312\014n?[{W?\235\355\240>>\016\'?\352B\032?\261\373\207>\253\351\276>\201\322O?c\245\347>\003\343B?\331]\331>\257\334/?\313g\272=\363\206/?\032\222\212<\247zE?\365\036\334<\357%\021?\244\240j??;\016>\305\332\252<\026\255\253>\023\302t?\017\035P>\316\277\306>[Yt?m\332\027?=N\274>\232\263\242>H\007*?\235?\r>\367\035S?q\367&?f\207\006?\314\013x?\371|\330<\311\275\031?\346\362\347<(\320\020?t\343E?\005\323T?\272:r?l:\212>=s\216>\235\251f?\256\2063?\374\274\272>\003\310\365>\321\371-?\317\366\257>\304|F?\275\276\233>\360\2500?\200\311\206=\320\356\257>Q\247\037?\034\tU?\360*F?\244oQ?\001P\322>R\257\270>\323\355m?\352X\'?O\346\262=\230t|?\325\375R?\321\343i?\220=h?\021\007\347>\021$C?l$6?\254\301(?\0256\027>\336yD?\254\224<>\267\002\244>\201\345o?\266\205\216>\330Jt<,\014O?\017\253\r?@\264A?y\004r?*\021\">v\215S>\355 \374=\220\024b?\377V\325<\352\367\266>t\370\360>\2719\367<0M4?D\272Y?\300\177\004>\320\364@?(T_?\373\226\\=+\357x?4\222\002?\334\337\336>\340O5>\223\003\317>\263\233e>c\217&>k\211>?\335\000/?\243D\364>\017\342\t?\272*,>\235\363\207>\234\020N?\326>\223>\343\002\020?\260k\260>\322\255`?\302\251u>\017`\356>\270!,=L)\037?\025\216u<\217\016\030=\305\202$?\213\272l?\014^\305>\203<-?\236\230\035?}.}>;\003R?\260\316g?\tn:?\210\002\007?\315\274\002?\243\000P?Fc\017>F\254\307>-\256\211>\224\361D=\366\326l<\260\335a?\330n\342>\334\307\251>Q\\\350>q\\\375>\274\010.?\264\036\315>\262P%?\207\226\375>\020\3541?\201\375b?\272\3057?\270\226e?\267lA?A\020\'=J\2063>\245\351\013?>4\033?\363\246\374=\221\372\">\234\231\257>C\261\266>\361\372\246;\243\014\007?\235\226a>\260\314m?\000\'\371>\177_\323>\033BA?.\204\002<\376\034\036>x\031\277>\205\275\020?\004K[?\215\301\'?t\335\n?\360\322\244>\205\004#>\250v\177>=\354\000?\223|\247=\302\242\'?zh\336=+{\035?\253z\034?2\205\247>^\241s?\340%h?\013\323_>e\334J?\340\0225?F\276\022>V\361\226=X\365\224=5Y\031?\253/\036?I\203\373>\253\363x?]\033t?k\223O?\224[\254>o\223\023>B\330i=\301\212h>\336\262\361<\211\332A?\353\220\217>\030\035\000?\303\242a?Z\224\004?|\r\037?\3730\374>\216\255G=\215iZ?\030\202\032<\322\206P?\375wQ>T\'5>$\000f?\236sO>g\013\377>\210t\233=\325\016->a\276i?\221\370\361>\316\007\307>\252\342!=\236q\001><\372\270>\377\345\r?\3304\313>\036\240\360=C6:?\327\204j>\320Wb?!\303\271=\013t*?\324\242\037?Q{G?\311J\201=\241\010^?<l\211>:5g?\004\031)?+\240T>5? ?\"\213\036?F.0?Z\n\321>\217Q|?W\232<?\250\252j?WQR?\344\316\007?\000\037\026?/k\254>\221\211<=\263\375E?\230\271c?\247\323[?H`[?\221\217\204>\353-1?\320|\217>lG\332=\324\232\366>tH3;&P\375>\245G4?[\376i?UZ\021?m\265\356>q\222\277>A\016\233>\331\275\245>b\2169?.\026/?\264\265\204>\237\nx<\241A}?\267\363;?r\335\004?\t\310i?\263\3242?\257\231K?\215\257\255>s>\021>\213\317\025?\314\273k>\371\213T?\303\355\003?\203\204\014?\362\351\337>.X8>\235\036\251>>\230\204>\021\r\263>P.\217>^\213\311=\306\366\250>\372K\260>\360\363\313>\303\346\013?g\356\032?\323 *?\236dy?\215_\245>V(F?\3622e=\021\266n?\0170F?j\345\365=W\273W? \006h=p\311\257>\314P)?\200H\273<~`5?\025[M?\337\301\226>\227\366\371>M\206+?\253A+?3\222V?9\233\005?\337\275\200>\204\031\246>=\372D>\370\222\377=\331\337\340=&\017Y>\346\256x?B\215\364=s\332L?v\331\"?\322\202e?\311\207a?@q\221>\250\363\340>UA\021?\024\226\272>\267\275\223>\263\r8=\300\305\354;\206\276\033=\213\307E>?\276\365>F\026\027<\022\"\007?\337\017J=\320<K>J\305\014?\210\312R>\351\246,?\247@\020?\361\031`>\r\232(?rT\317>\276S\234=\250\236P?n\360;>\240\036\312>D\322\227>\336j\022?\212\006\221>\212\271\004?G\353\335=4\326;?\317k\362>\263)\235>\320\2766=/\347\352<\214\1773?\333:(?DPm>\315\250Z?\375>\260>\373\0138?\260\213H?`\025\247>{\306)?\273\221\000?\335\267m?r\"\003?\255;m?\252\251^?\222\021\007?Z\304\000?\312\320\277=\177\314L>\212\365/>\026\275\220=\004\033s?\325\355`>R\3260?\247\352H?\344\224\235>\345\356S?`\366R?\330\353g?.\0042?\220l\t>\025\300S>W\013T?\300\010\366=\225\265\014?2E\024?q2$?gN\225>\315w\004?\207\331-?;1\352=\277\361\274>\327pM?2Aa?G\376\276>\260P\262>r@:?`\322\222>\305/G?\266\336\227>b\\\032=z\232\326>\341{\270>/\331\254>\235\325+?\000\266|?\371j$?H\014\314>8\027\031>-\252\327>(\375j?4\206\\?\315\345\032?\217q\337=\004\256D?\247\256\227=d\r\333>\362b^?\224\204`?\016\342p?\031$\211>k\016{?\254\365G?L\2238?p\372>>\3734\204=\252\240\024?+\251\006?\201\223\216=\247G\005?\302\023\362=5^P>\214\267\310>Nk\336>\277;\177?\2452-?\315\235k?\252@G?\252\013]>\003g:?\202\365\\>^Nw?_I\360=\326\247j?\314,C?\252\211\233=w;\231>Qkd?,\'\356;\223?\026>o\341\216=\tO\227>a\274-?\0057\352>\031\342i=\2238\205>\312\362t?\342r\357>\335\204\343>1\353\014??~\306=$3Q?\235\237\242>\005\254\277<\365G:>K0\310>\361\203\350;!\322\253=\026\367=?\206U\006=\347\373\363>\002\370c?\014H7?z\274\026?\330M\343>WDO?e\371\232=4\\3?\021\252\220><\377G?\256\027Z?\312\301\337>8\016}?a\'e?\341\341`?`\3377?\275\337&?\371\227\021>\336\234\233=\353\021[?\311\366\006?\326yR?Z\'\244>;\354\001?\3507\020?}M\n>\241\225\310>\246\014\267>\273@z?\315\236\263>\313tX?\341\353\034>\336\260\220>\326\300n=\317\2757?\335\334\002?\270\026\245>W\177\205>\353\225$?N\263o?\313R\264>/\005z?\221\036\\>\\U$?!s\010?\024\322q>2\371y?\2352\302>\2101\374>P\332\256>\016|O?mg.?\374\353\032?p$C?\267:2?\004\023\034?\241 l?\016\367Z?\330\322&=\261\356h?\314\000\035?I\273t=k\343\001>#\240\037?\377\227p?\231\372\220>\270Y%?\226<\323=\367\277E?\245H\034?\001\314\367>\222\224\312>\233.\334>\331 \302>\376\220\346>\272@{?\210\3105?sI\313=\031\tN?\345?C?B\223\373>\252`\225>v\0339=\t\243o?SS2?\3239\003=\255\351S>\203!\321>0\362D=\020\344\014?n\021\342>;\225\334>\303]\334=\324)\310>\274\261\036?\014\316\'?\275,\023?/\274\010>\r\222\364>\365\340\020=vXc?\353u\030?\326\270\350>X\213\253>\3442)?\021\343\230>\375\177\226>\033\255Q?\253i\212>\262f\006?k\341t>J}\r?\341\202\'?M9\271>\256\307\343>\321g\002?{\360\307>~\020\030>\333Bg?eK\262>z\240<?\341\314_>\225\357\016>Y\036\365=\272\262=>\356\376\372>\027H\363>)\007U?\226\370\270>\3767\017?w\003\017>BC\\>\325\201Z?\220\305-?\303$\365>A$3?\211\345\020?U\3104?\215we?%w\325>\256\2601>\255\003\006?Z[E?\010D\233>\212\262\264>{\027k?\277\234=?0E\303>\333_]?+\244\266>\226\341V?\004\277\374>\220\255Q?\315\307\207>+\272p>\373;\177?%\314s?\274\313w?9\020\201=\227w\025?\'.\006?\362I&>\212\334l>\212m\303>\232W\234>b\014\217>o]H>(|\270>pI\242=<\232\">XHW>3\243\205<_09>\321\230r?cp\022?\270\002\033?\302r\016?\205T\020>\320\302\242>\026(a?\032\377m?\273\036U?S\235T?\367\353\026?\016\313R?\235\340h?\304\276<>\013\031G?\370M\036?\353\224G?\335\357\337>\353\024\037>\0051=?\320\363\016>\235\010\025?\0306\177>\232\355\220>\270\342\247>w\030$?8\034\261>\017\300\357>6\334s?\246\022y?\245\252\021>\252=5>a\346\376>4\224{>\306\242\211=\366\213s?q\252!?\277\3311>!\010\253>6\262\210>\0356\000?o\n\376>\255X1>4\215\026?\037\000\217=/\234W=\034\306s>\250{]?\3537N?\033\212\232>\257\350\331>\374\310X>z\236\333>t\330\027?\253\261\003?24g>\320\205\021?9\344\312>\220\306\016>\030qT?=\025-?\315F)>\234\227\007?\346\360b>\324?\214>\350gs>Zg6?#\207\336>i\360j?\214\376H?\004\271\'?\255\300!?-A^?[\rd?\202\213\351;4\243\334>\005\337??\013\260\264=\2563\023?d\022b?c\262I?X\010/?\326\204p?\035\303i>\241\260\236;\2634\035?b_\177?\351\356\227>\340\031\366=\2316\330>\252<r?\247\240\014?\233\316<?\342\357G?}\2402?\207\016\205>\311\351V?K\037U??=U>\341&\241>\257o~?\310\375\250>e#\010?\037\240z?\226\326\227=t\244!?J\302$?\274\"\032?\211}\362>%\223W?E\221\t?\2451\346>2HU>1\335^=hs\n?\254\307;?\204\331\335>\3026C?\035(\002?\235\237\n?\230fR>`\225a?\331\376\351:\312\025\310>W\237\374=,$>?U,~?\374d\245>\000\304\026?%\271+=\271\3739??\215I?k\264\212>\304\010P?]\305o?\327\210\360=[.\344>p\321N?Kb\200>\026\034j?\377A`?\220~\227>c\013\377>\230\354\352>=\004Q?|\013U?\235`\236>%j\220=\205\256\235>\357@\r?s\363\203>g\370\314=\033\321$?%X5?\316c;?d\177L=s\333\r?^t\246>ofg?\3469\236>!\373\030>\212\003\347>\332\200\344>\210\243C=\033\202Q?\203H@?\200\270:?6kL>,\3462>meK;\323\263\363=\322\000\207>#\004\342>\311yf?pr\241>\230\251\265>\245\260J?\"BG?\263_\n?\216\271l=K\005\261>\240C\376={l\037?#\263\020?F\252\216>\252\230w?\361\'\333>\013\014Y?\366\215}= $\n?0\262}=^4\314>\310)p?\361\214\262>\364\347\226=\240\330\267>\354\2478?X\243u>^\3228>\320;\275>n\312\023?5_\004?\301\335\236>@#9>\3721\244>\001\333\343>\321\\\002?\272\252c>\304\345\376>\000%\331=\303\374C?\222y\007=I4??\241R\313=\374\243\323>es:?\032\217\026>\307\206{=\022Rq?\331g\221>k\234\322>\032O,?@_i?N?\'?0\320\010?d\327\010?\3446i?\362G$?\361\214a?6j:?\266nN?\027\356Z?\210>]?\247\216\004?RT1?1\312\336=1<v?\241W\215>=_R?\212]\021=\356\274\310>\354V\254>\350\336\341<\315O*?\007\'\275>\013\226\224>\010\366\320>rB@?b\257\004>\260\302U>\235\001\275=]-\230>\ns\267>\244\374\345>,\333+?HE\036?\213\200\370=\027{9?\354\035 >\206\001\241>\375\204\206>\2365f>\362\313\026?\262m\340=\240\261\004=\213\336\007=}`U>\351\r\266>V\221??\020\261I? \377\332=\267\310\200>+6\017>\203\347\322=\235[V?\210\r\307>h\262\003>\250\2046?\356\315_?\311\ne?<m]=\340\021\016?\'}\026?\322=\005>\320\032W?\370:U?\034\205\003>*\274\036?\241\367\033?Y\251\002>\370?\005?Tm\000>\002T/?\226\346k?`\330\314>\022\327A?\374\233;?\361\370=?\277\340&?\262\373T?\372S\177?\307L\037?\017LQ?\251\354\362=|\226]=9y*?3\014h=k\343)>_\263j>\305\373J=w\215\021?n\357A?\331=\026?AE\026?\024\212\032?\215\363L?\034\374N>8\031\023?Gc{?A\226\234<\010d\252>\307.\205=\003.S?\r\227y?\342J_?X\374\374=\230{o?DGm=\220\333\232>\n\320S?\031@]?\215os?\005WV?\312j=?`\213O?\211\340\360=\341\306\317>f\000\021>\035L,?5\3061?\\v\316>PFL?B\306\225=\014\344\'?,vp?\242\244\321>\213\036.?\030l8?\334M\264<\223k\003?)L\026?U\307t=*Q}?P\320\346>\001\201\273>\363\363i>\315=\267=\254\267\265>\351\375\277>\027\341$?F@\272>\214#\037>\265\334S=N\255\242=\236M\025?\207\305=?\356\231\271>15\321>\270\022Q>=\250f?\177R\006>\272\362u>\217\031|?\222\214\277>vig?\253\255\271>\264\261\034?H\2028?\212\325J?\321\025\024?\334A\323>\363L\345>n\356Q>\213\253\005?\374Dt?QU7?\375\024F?\2130\373>\206\247[?\236\266\004?\257\243c>K\250\360>\265=)?\014\342+>\241\"\200>\320Q\216>0\014\016?*\325\257>\351Yb?\352bL?W/\306=\211n\020?T\202\211>q\212H?\335)\250>u\003\310>\272\256<<ey\302=P\316:?\240\370g?zd<?\275\235\\?S2~?-\200m?\275\352\361=\21504>rr/?\276\356\273>{\035\r>Cp\022?MmT?d\r\217>i\276`>\335\372)?C\214*?\376\370=?3rN?\246/\315>k\254??\365F ?\025\353\257>0\343>?\353\277\024?kAc>f\376\244>T\310W?\337\330\202>\371\307\314>\275\037e?\301\032\005>\034\266U?\211\201\"?\302\320\177?\252\353\334>\270\277u?A\034\320<_<o?\003\305I?\032\362+?\276[w>\376\300Q?\260#\034?3\321[>$Cw>\300\014g>\357\023,?-\027t?f\252&?\330\217\360>\231\336*?\031\215V?f\375(?p\253,?\220J\341>\026\370b?\366\377=?\351\351\r<*5^?\252\031]?\225\205\214>\n\256\247>\\&\276>t~\254>\271W\030?\331\251\230>\345n<?m\362[?\2049\r?*\rh?\353]x?\377\336H>\216\274\026?\213\263R?5Z\233=\245\033 ?\227\301\376>\220\217\304>M\272\360=\262\362.?>j\312>\213\022\027?\314\034\221=`\212\224=\246_}?A\016\036<\254\277t?_g\240>\362\355\347>\300\0234>t\350\006?Wj\362>\240\t&?g\331\353=*\212\201>\320\3767?o\233\026?\264q\020=sv\230=\333\0369?\014;o?!mj>\265\331\263>\030\0001?*\325\315>E\261\342>\003\360\370>\360\317\007>\361(\177>\313\301M?\262\211\356>\315\r\266=\335k\351>\322F\'?\347\026w?a\"->\240\023$>\243\216\035>2\034}=\306K\367>Q\033P>\207\3372?w\337\023=\332[\264=\212\341\230>\210\346\212=I\376\232<\317\267\371=Z\274\021?\205\253\330>\335\n\\?\345\263q?\272\351P?\341~\035?\312iu?\322\364w?\376\227]>\264vJ?%\022\263=\372<c?j\253\265>W\354\204>\227<\020?n+2>\252+F?186?\301b}?\372\341{?\030B.?\365a\360<g\312O?\310\231m?\334\316\327>\205\026\003?\244\240\006?)-\342=\366l+?+\024b?J\270n?\246\037Z?\017\275\206=\270z@=\022\010\003>\267\311\023>\035\302\320=\365\225H?\221<5>\247/$=:$G?\022\032q?\327FP?gE\030?\220ae?\302!-=U\024\314=\021GF>\37567>\254\224%;\321\332h?e\215:?\225\224\024?\334z\033?3\232L?Z\325\221>\332\257\342>\026]\350>\374u\242>\025~S?\245\220\013>\034|\324>\025\317&?\002\032a?\007H[?\033&v?\021E\274=(n\365>\'wS?\266\354+>,\326\370=\332\272\362>G\337\023?\210\2054?\257B~?\301\014`?]\367N?>\326E=\3128\024?ZH\213>\324F\271>A\262~?\013rS?\342\0344?/\376w?\032\355\213<\325\325\010?~\301\007?\276\212y>\007;\021?\032S\231=\014\315\024?\020\244\035?\270:x?=\343\345>\r\211d?\372@Z?\227%|>\257\356\'?\025\\\246>!\367\037>d\356\276>?{\030?T\003\312>k\306_?\343\273\343=^J\232>\235yh?N\303:?{\221q?Y\340\231>\035\301-?\245\035\'?\320\323O>\361\354s>\356\305S>\315\331%?\2465o?\016\377l>~\235f?\246@\343<]\026\355>\277\261\361>\342\2231?\206@k?\325\301v?\202}+>A\253\246=\363\256\326=\200\022+?\233\352\016?\2532Y?\227u\312>Y\204\356>\001\322%?C\200t?\014\253\n?\323\362h?Q\307\233>\302\034_?\336\017R?\022\014\304>\34724>\372\037\026?\210S\301>\263\302D?Y\244\350=H\003N?#\245\302>\334_\013>|\214P?\031\035\337=\200\3073?\214\"\032?Q\311\'?\327\307\000?D\362\036?\223\270S?\341\316U?-\215\030;4Z\"?e\327A?\323<\322>\277\204\304=ZG:>5\307\347>}z+>\361\372\024>\020\033h?\321qU?\013\355[?d\341|?\2325y?\273I\201>\206F\357=e\351D?\310\327\270>\237\023\036?\240\263\022?Z\214z?\227\t3?\001\037\010>W\231[:4wJ?\346\3548>\253\245\033?\265\256\342=5H\330>W\t\366>\365\"M?\235!\332>X\367\206>\251\no>\344\320\214>q\234(?4\334\000?\261\320s?\331>w>E\347\035?\242\247\005?\352\365{?\364\312\244>\352R\325=xM\241>\342\376\257>\336K\007?\366\027\034?\312\240]>\375V\006?\302\204\\?y\351p>\336\n\005>R\032\232>\"\253:?\220c\343>\004o\004>\354/*?\274\211a?\351\213\333>\031\307t?VV\031?x\307\354=\332$\342>\250/\006?-:3?\313\233\350>\365\3670?\261\347\326<G\3637?Ic\004?\237\257\253>#\023O?\356\036x?f\225\241>\037\312.=\253\030H?\326\361\334=\004\257\325>/^\014?\363\362\302>\261\342E?vMo?N\331B>aEI=k\2010?#\217\335>\232\213g?b\002\023?\223\2704=X\222h>\347w\366>\361\373u?\202\314\021? \213,?\2479*?\r\351\304>\244\3762?\317\262n?>\244#>\024\036\214>\267w>=\232\267m?!\316\223>ly:?\301\315#>\177+\010?\276\"\036?\266\242\004?V\267\352>\032\275\016?\251\003H?\352l9?\010\3241?:\274\006?\216\362.=\337\224%?\256\334H?p\025\340=\201\020l?\243\317D>\373\200\345=\241g\024?\216\032\205>\001h\277=\312W\366=\027t\007>{k\311>\037Xm?\210d\003?\254\204F=*\227\'?.7\271>\224\201C=!i9?\240@y?t\353\241>\"\313V?\230\ns?\363\214\375>[\331g?\251\221\370>\"\014\002?4#.>\336n\"?\n\343\\?q!_?^aJ?s\r\233=Qm/?\303\005\216>c8s?\361\215/?.\260,?\211Q\224>\331\303\337>\373\005K>{\373\002>\226\221_?\005\234\r>\n\262\315>\241\014\374>a\t|?r\214\333>w\356\200>s%\352=\217\224{?\274h\034?\035U\331>\243s\362>L\1776?5$a=\300\344\350>\222lk?\330;V?\177C9?\342\303$?t\210_?\276[\250>\274\005\032?6$\234>\346\365&>L\273\321>|\366\304>\245[\203=:k\341>\223\320}?\241\205\177?\266\265)?&\tb?\255\264\023>\275{\216<\023B\371=CR0?v\022\210<\3366k?\205\000\200<E\327v>R9\003?\314N=?\n\213*?$\n6?;\327*?/\245\240>?q}?\253\325h?\264R~?\215\273\376>lcc?l\354\347=\305DE?L\337 =\332\262\230>\300\3078?\370\360j?\254\017:?r;8?\036\226\360>w\300E>\300\250\275>\365w\244>J\3042?I\250\325>\201$\326=\224\235\364>c\022=?r,\254<{\362\265>\207\311\267=*x\023?\214\304\343=`\375 >\371\306\274=\332/\003?\332\213i>\267\270^?\003.\374>X\257\255>\024\201j?V\017\266>[\245\377>\371\016\006?7\'\303=4\232\007?\327\373\254=H\374R?\251\236\336>rJ\266>O4\020>\363\037\014?\305\'\007?\036\325\210<\272\344\274>E\003\211>\263*\260>\202\301l?\017\361\007?L\374\223=^\353+?e\035\237>\351o\006?\232j\001?\236\231\213>\371w]?u\300$?\371+r<\301K\217>\276\202y?|f\023?\274\035\034?>KR?\211Z@?\224EE?m\252j?\032\376\214>YK@?_e>?R2\'?8\203G;\310D\032?\234\264,?\025N\035?\243xx>U\351,?\233\002[?\221\311%?\006W\230<\231\355\'?\361\2336?\001\236L>1\271\'?p\357\224>\326\205\024?\"d\224>c\252\377>k\304|>\260$@>\245\226\231>^\210\003?\320\320\'?\201_\200>\333>m>%x`?TjA?B9\214>\310T\205>\300\374x?\361\242\001?\034;\306>M\013#?Y\333\246=\222`Y?9Q\003?7!\354=\220\212\\?\034dT?\363\002\372>\034\301\004?\316\364\000?X\217G?\376g\010?\305\007\332=\213T\017?:A\275>\201\r\374=\351\306\200=\365\226\234>K\005!?\353\034c?\373n4>\253\355X?\007\2126?\260\267u?\031e\354=\255\247\034?&r\344=\266\331\030?\214\246_?B\246;?\252\312\357>FE\311>%a\034?\330ne?S%!?\353\224}?\322\361=?\007}\037?\020\212o?\0269K?\213\020q?X\014-?\247\331\335>7\226L?5Z\324>y\312R?\3328`?\265\317~?\216\330\006?\374b\205=\265#\001>\216\352\215=:\035@?\376\236&=\316\303.?\320\346\206>\255.\212>:\222J?\034\n(?l\235\243>\334F)?\014\325z?h\266s?q@\324=,\273J>\330`\250>\316\336\335>(<==$A$?\237C\014?\351\024\010?\234\216-?Z\326q>*\215Q=\374\007\232>\241\222\030?5\005\371>C\226 ?\030\2778>\177~\214==\"W?\220\\>?\20437=\264\247\227>\377KB?\252.\240>\324F\n>\300W;?@q\215>\243k\377>\273\222B?\014\310\370>\265\206.?\205\376H?\275\024m?\330Q\375>>\263u?t\333\351>\017f\036?\267\345\325>~\347\004?\217\311j?\277zd?\347\316\210>\276{\021?\270Wd?\272EW>\276:d?\240\"\367>\323\240{?\013\217s>j\333_?\025\276\331>**\316>\005\372\010?@\355I?\275\367\017?\262_\010>\237\220J?\215\311\243=/\021\313>\355\250:=O\370a?6\030X>\271\276\223>\217<\017>\314\323\016=;\270#?\323\3764?\254\330Q?\312\253n>\215\005\026>j4\244>.\221y?\210+\032?\020\024\246>\360\334X>o\366u?8$\375=fd|?\252\002\030?\226\244\036>\210Q:?D:\301>\341\337A?\273\320\211>\357at?\006\375\037?@V\376>\230\3305>v\314O?xAR?%\331\235>b\207\322=\221\347u?\322\240u>{@E?|\227&?g\266\233=H\252\364>\205i\201>\013\2041?3YZ?\000\343#?A\324V?\222W\353<\255\013\362=V7\017?x\272\221>5\364\035?\027,\034<\200N\317>\234\264\201>c\356\027?1\342\311<5\350U=\021\257\032?\177\227\231>\376\273\201= \315\013?M{\224>j=\264>\310\020\000>\264\223\007<\211e\301=*\343P?Y\313b?\371R\341>\326\343\374>\346\217\343=\371\'\377={\327$?\211\207{?W\2603?\257>\244>T\363\340>\220S\274>\376\366#?~\337\241>&\203\241>\0108/?7\035#?p\366\013?\221B\332<=\022\t?\243\'x?\033\330e=dq\232>\227\205N?\013\2462?\2747~?\037_\004?=\235$>Q\201F?]\204\025?\260\nd?\223\264t?\n\257\006?\244\335g?\020\020#?\362\204W=\205<\261>\324t\263>\334\343\364=\031\275Q?\006.\021?_\245\023>\300\306#?):\n?+\316u?\335\322\206>T\341{?O@]?\200\230h?\310\354??UWJ?\224\013&?\237F\002?\374\241\002;\312\315\022?\2609\r>\3272b?\024N\034?\365\004\351>\376`\037>\301\275P<M\206:>\303\035M?\335\334\010?\343\201\177?\207k\363>\003\r\277>^\3605>\321\272)?\035\037\302>\353\304\000?D3A?}\242\020?7\025\001?\271\317>?\337\365\313=7a\215=\361\252\352>\336m\014>a\367\302>\320\336\206<y\241\315>\014T\215>3ol>6Q:>\276ur?\014\326)?\332\365\007>$\234M>\007\204\256>E\353L?d()?\246\261w?r\331\301=\312\336\010?\t\332\350>\311\362:?Wm\014?\322\314\274>\260&\243<8\007\221>\376Rh<\271V\251>W+??\250\225<?\016\275\224>P\212K>\273}\t?\014\341\026>\3074\n?\336\313\027?\345-Y>A\r\033?\r\246s>Z\321\007?\337\2515?\372\232\003?\370\0036?\177^\305>\026\246\013>\347qt=J\332\030?\353\2632?W\240\035>\216\027p?\310+\322>*\262\263>L\333c?\257\327\366>7\221i?\367[\250>{\250a?-X\\?H\201_?\307\2446?\252\231\020?\r\211o?x\335k?\241 \323>\244>\033?\006\303\255=>V><\006\202I?$\345<? \3673?\316\030\347>C\300L?\216\202[?\265\311X?\240JA?\342\360\000>^X)>N/\342>V\3038>5<1>\363\247\305>jrh?\031\346C?E\211\017?\346\210\036?\375Qs?\373\0370?q\323\212=&\310\244=\333i6?WM4>pD\212<\264\375\342>\332\253;>\326\325\202=w\262O?ol{?\005\244k?\266\3011?\221\014L?\031&c?*a\306>\021R\311=l\211m>\337\215K?\212\005\215>Z\322o?\r\035\232>\266\320Y>{yD?iV\235=\207\261M?\367\300\002>ZFJ=On\310>\223\367u?Nf<>\370\206g?\215\241\373=\260V\307>\016\333\242<\346\032D?\237\005J?\351\2579?\006\002\236>\374L\266>\006\241c?\030P-?\276\262\364>\236\324\032?\213\217P?\003\261f?\270o\270>[\027\020?\006\264r?\262\2056?#\207\016?\374\221Y>2xw>#7\017?\025*\033?\301\323\007?!?~?{n8?1q<?b\332o>9\031X?\022\206\301>\315]\230>#\271\001?19\321;\271H\341>\307\347\020>c\352\201>\232\202C?\327\037\017>z\334\215=\377+\341>2\001r?Gy\237>\301\244\306>\230\374\014<\013\022\377=z^\360;$\354\276=\211\004\215>UY\007?\2016!?\247\333\025?}q,>\014\255u?\323tI?\201\367d?\327Rf?\246@~?\317\025\365>9[\241>n\242 ?\025\304\037?\224\317\201=S\033\221>i(\013?\351\311H?,0f>\2167j?\200\301a?\004/\243>\330N\263=\\\340\222=\016sN<\275\313\210>K\021\001?\24534?\326\301v=\314\3233?\274\307A>\251\021y?\364tu?6\371\361<Ac:?c\241M>\231mI>\206\326\312>\314\200\236>\237\266\306=Sm\373=\035dL=\304\277\027?=\006\276:&\2403?\304Y\274>\271P[?a\350\027?\013\262\220>P\266E?\000\262\243=|\331g>q\364 ?(\037\007?\366\007\017>\030*#>\276f3>^\013J?\032\264\270>\002_D>\016/\255>\3550\037?\233\031\327>\216m\232>\3334\001>G\3547>\224\315x?\000\226d?&M\376>\227\304\367=\022H\276>\315\312\037?}\373\n?\350\242\230>\357I\025?\301n>?\305_V<\346\251g?\353d\004?*\306e>=\305*>\177\025\346>\024n\007>\021$\227>i\001\020?\372Y\326>\013\221Z>\372\306:?\372\267t>\225\255\217>L\252\222>\345,I?R\347G?\257Qd?\3638\342>o\271\361>\017\373\246>\316{T?1\350v?h\217)?\201\305O?\357\317\035<\266}4?\356\327\254<Z#_?\323\230U?l\177\027>*\034\252=\202\264-?\330\265t?\275\014\272>\223\223]?\253/\234>\335(/?W\232\342>\252\320\367>\204C\205>\357\262\265>\251U\030?p\277\365>\324;\t?\343\360\031?\330\203*>\236\365\362>\377\244\235>\022\300\226>L\222;?\336\332J?\304G=?#\014\204=d\243\306></\036?\333\305B?\035\352\035?\362$|>\356\304!?\272~\222>n\256\265>E\334^?\216\375\351>{;9=\335\212\271;\266\317\013?p,\027?5\243z?\213VG?\356`\316>ZC$>\300\315\262=\353A~?\344\205\235>\357[\t?\364\227\327=\303y\017?\334\207(?\242MX?;\355\027=f\221\t?\005ZG?^\021g?\204\007\266=\003w\354>b\241\353>\r\221\337>\020\2368>+z\010?D\325\033?\301\231;?\035\363p<[\3737=\031\252X?\210e\363>\200TD?\345to?\352\215!?=>U?\351\037\t?\023\320\340>\274\027k>==4?\255\367\371>E\216S?_\177P>\264o\340;\307\231i?\035\3201>,\031\337>\234|e?o_ ?d)\027>\225\2152>\2320B?\273L6>$\375\352>\245\321\013?(\256 ?\271]\004?\311\221\023?\352{\031?CYI?\226o\023?\353\023\\?\225\236Q?\370\033g?\2713\010?%\373\034?1t\010?]c\027?\007\2402<\334\265\177?l8\027?z\231\327>!\244B?\025~\016?\367\315=?5J`=L:c?w(+?\021\0021?\363\006:?\371\224%?\272\305Y?\021I\373;p\021&?\210\262\213=X\361g=\344\363\216>\001#\243>\217]7>3\3609?Vx\317=\365<\313>\256\251(>:\to?dH\013=Y\327\363>\273\200P?D\271C?\234b\017?\'T\031>G\264\372=\222\0347>\314\245S?\221\267\217>\240\333\033?x\225\316>\356u{?I\244\362;S;\257=7\264\016>xB]?\340GM>\213\353\036?\224.o?\'~$?w\006}?\023\213\001?\020\316F>\275\273\274=\"v;?0R\326<[\360\301>\204\367\027>\320\221q?-ZL>/\352\034?);\245>\262VE?\334\203\234=\007\322\354>\236\220J>E\205\260<,\\2=I~M?L\232\007?\343ue?\251\2778?\002\316\225=g\276=?\\=j?\010\272\314>5\206\347>x\245\313>\027g1?v\2209?\201\376\004?\266/~>\221\003\021?_\033\341>h^\201=\341\322\324>1\327\014?\213{D?\035\304\315=8\013\035>_\310\007?\243\327\034?\343p\377>\027\351\230=A\331\365>4U3?ln2?u\316\035? \302\253>\1778\004?N\363%?k\245[?\316\335w?\0274\257>(\315\334>2\350\212>\017\030i>\331e\376<x\216\354=!E\312<\004e\237>\307\213\253=\231gP?XEb?*\\{? !V>\360\336\205>\312;\360>\247\247\022?Mt\217>\005\0025>\032\231O?-Il?\242W\354>\000\014J>\327\212B>\026?(?)\350F=\020~\217>\202i\311>\354\010!>t\244s>z\366v>#\226,?{\005_?&\201K>\223?&?\353\234+>aSg>\031\344\013>\272\351\267>\305\334\370>\206\025\"?\023\021\355>V\267\210>\372\334j>*\t%?\312\345\276>\n&[?Gf\221>\321q\373>\360v\234>r\220\200>\303\347L?X\0255?\210Q\371=\367\026N?3/\'?HC\306>\002;*?\222U\033?\206$\213>\233\021N>\311\000\230>/\326[?\245\231\324<\027\355\352>\331-\342>+1@?\355dA?\366\255??&\263\310> \327!?A+\001?\'xg>N7\007?\354h\353>\227\233\000?@\010\213>\375em?\315>\324<\355v\262=\277\3517?\366\t->\037lE?\003\256\022?i}J?\272$\003?w\271&?}#C?`\217f=(\273\276>\374UP?\227}\244>\354\0051?+\333\201>\375\274\n?\346\230%?[{2?\\\266\321>\t\211\330>C{4?i\345\033?\177wa?<;\253<;\024\001?K\'g?\007^\203>\022fr?\034\272\306=a\217n?\014\3771?xc\325>\211\266\021?P\354S?\267\354/?%\t\026?YI6>\'\371\226<\317g,>\212\277.=\327a\235=\201\310M>%1\377>2\364\311<t\375\002?\265+|?\360?r>=\330,>:\007\r?\314\211\204>\341\202\341=Z\373\354>\317\326\034?I\tl?\001\204V?O\242\025>\301\3441?\367D\306=\\\3016?\360f\214=Y\321g?\203\304\022?P\344\362>\220\027\027?9\177\016?\334B:>PD\\?y\033&?}ve?\333D\345>\024\003\351>X\204\344>%\246z?\020\tH?\264k\321>t\316\014?\366\376\r?\016\221L?\220\013\356>\300\205\325>jI\210>(\351=?=C:<\327\302\177?\351\342z<\313q\t>~b\220>\245W(?y\202o?\271 \254>\212T\215>\016\357\r?\315\273\330=\276\221\207>\3350\205>\"XF>G=\177>\361\364\016?=\005\224>\347@\235>)6d?\206jA<!\304-?7\343W?\010[\375>p\027\014?\305\325\226=\342\333\267>\'\220\014?UIM?P$n?\177\270\223>\366]R?5\255v;\254l.?\375\232\202>_\033\035?\002I\243>\3002\250>\262n_>\311\017N?\335\0104?\364\373\307>\337a_?\315\353\317>\313\272g?\0226\036?\014\237\233>\214\322T?D\261\327>*\006\026?\223@\252>\002\007\024?\212\305 ?@\006,?\270\033\224>\210\311\305>(\263\\>K\326{?\325\312K?S\332\316>,\214\020?\370\364\006?d\220q?\006ti?|\333\246=\216\331\034=\257\274+?\260\206P>\336\334\351>\025(7?JNa>\300:\336>\221\3267>\243\334\010?\333{$?\210\235^>\2626M?#C\302<\247\3442>\373\004Q?\327\361U?\017\306\030?\210\2463?\374\352S>/\027x?d\235\267>\340;z?t\276>?\002p\277<qK\234>XB!>C\244\013?\241\245\017>\362\020\000?\276\265\031?\376\262a?\302\324\'?d\003=?\032R>?d\001\021?\'\247s?\027\244|>\276\327\003?\200\364%?\263SC?\2764\364=\254\347\027?<\246S?\2274\025?\317]7?\351)t>\353\025\317>H\014R>\206\177\316>5A\325>\006\205\340=\236P\013?G4d?O\037z?\336\031\000>\016\016\366>j\t\356>\275\214\033?\272\304\025?\016\250\001?\223\335 ?\346\231\352>\001?L?\305$f?\rs\213>Z~\263=\357\244\n=\351\354\013?&\315R?\220\340\253>{)!?\351\374\331>\341;\321=\021\303\204=\032\331j?\021\027F?\325\260d?\367T\224<\216\251-?\202\365\244>\004\224\333=\200\370\305>\207\245\025>\240V\246>\305\364\240>\023\024\251>\016\211\332<B\024\205>\222g\340>I\307\"?anB>\032\266\340=\373~\025?\325>\361>\251\275\301=\217\240\252>\\\2172>\356\217c>\347cB?\374N\030?\030\213V?u\320{?\026\2519?\237M\313>\223\370\355>\212\203\010?<\021\245>\210\352\305=\234\214\372=c\224\027?_\271/?S(\330>\242\230\315>U\266\256:\377R\247>\306\221\335>R\034\305>\271\322\315>\330\224~?\356\216\355>%%#?jG\017?\345\3133?\000\333\"=\213\002Y<j\263??``\'?\203G\270=J\007e>B\300I>W\204\\>\307\177\014;\313xD?@\362\276>ZK\231>\207g\324=_\010\002?\275\017@?\226d\244>\034\241\001?rX\035?\271\243m>\304E\224>\220w\n>\\Ps?t\312\223>\215.\245>\010{\271>21d<i\334%?\004\264x>\235\333\t?\373~\016?\004\236\013?\000Ok?:\n\325=\266\010\244=\266\357\031>!\326a?Z\254\246>r\267R?\2365\025>Y\313\030?!`\003?\374\005\333>L\273\351=\214\036\204>EY:?\361p\257>\224qr?\223TX?\211j\315>q+5?\342bO?\0179a=\214*(?\310\202\002?\272\364l?\374\n~>R#d?\031l\007>\244\326\'?\252\020j?\277?f?\023\211\017?G\227A>\314\357\310>7\273\256>`g??\250\334a?L\220\343>\002\361\204>\235R)?\025Kw?5\033b?\025}\202>\252\314\023?\364\215~?\230\204S?\305\3403>@Fq>UW\276>\2766\373>\3408t?\352|O?\023\270\\?\344\241\304=\351\330\361=\3611&?\212\005\277>#\215*?\007\010\004?\311j=>\276\202)?\266|2?}\273D?\242i,?\314a4=\322\r\033>2`\336=d\030$=/8\243>\264\270\332>U\367\215>7\2250?H\320d?\261\210\257>\211\246\243>G\r\004>\\\352\230>\254\240\205>\345W\030?\242\220o?\257I\023?\225\2171?k\262F?>r\006?\263\223m>\221!K?\333A\266><\025\373>\361\300;>\\E\010>\005}\241>4\357A?\226I\200> 